{"</null>": 0, "</unk>": 1, "</sos>": 2, "</eos>": 3, "</w>": 4, "0": 5, "1": 6, "2": 7, "3": 8, "4": 9, "5": 10, "6": 11, "7": 12, "8": 13, "9": 14, "a": 15, "b": 16, "c": 17, "d": 18, "e": 19, "f": 20, "g": 21, "h": 22, "i": 23, "j": 24, "k": 25, "l": 26, "m": 27, "n": 28, "o": 29, "p": 30, "q": 31, "r": 32, "s": 33, "t": 34, "u": 35, "v": 36, "w": 37, "x": 38, "y": 39, "z": 40, "~": 41, "!": 42, "@": 43, "#": 44, "$": 45, "%": 46, "^": 47, "&": 48, "*": 49, "(": 50, ")": 51, "_": 52, "+": 53, "=": 54, "-": 55, "[": 56, "]": 57, "{": 58, "}": 59, ";": 60, "'": 61, ":": 62, "\"": 63, "<": 64, ">": 65, ",": 66, ".": 67, "/": 68, "?": 69, "\\": 70, "a</w>": 71, "ab": 72, "aba": 73, "abe": 74, "able</w>": 75, "abli": 76, "ably</w>": 77, "abo": 78, "abra": 79, "abru": 80, "abs": 81, "absor": 82, "abund": 83, "abv</w>": 84, "ac": 85, "ac</w>": 86, "acac": 87, "accen": 88, "accentu": 89, "accep": 90, "acces": 91, "accompli": 92, "accor": 93, "accoun": 94, "accu": 95, "ace</w>": 96, "ach": 97, "ach</w>": 98, "ache</w>": 99, "achie": 100, "acid": 101, "acid</w>": 102, "acidity": 103, "ack</w>": 104, "acor": 105, "acqu": 106, "acre</w>": 107, "act</w>": 108, "acts</w>": 109, "acy</w>": 110, "ad": 111, "ad</w>": 112, "adam": 113, "adam</w>": 114, "add</w>": 115, "addic": 116, "adds</w>": 117, "ade": 118, "ade</w>": 119, "aded</w>": 120, "adela": 121, "adequ": 122, "ades</w>": 123, "adi": 124, "adm": 125, "admira": 126, "ado</w>": 127, "ador": 128, "advan": 129, "af": 130, "affe": 131, "affor": 132, "afri": 133, "after": 134, "afterno": 135, "ag": 136, "aga": 137, "again": 138, "age": 139, "age</w>": 140, "aged</w>": 141, "ager</w>": 142, "ages</w>": 143, "agg": 144, "aggres": 145, "agi": 146, "agli": 147, "aglian": 148, "agne</w>": 149, "ago</w>": 150, "agre": 151, "agu": 152, "agus</w>": 153, "ah": 154, "ai": 155, "aims</w>": 156, "air": 157, "air</w>": 158, "airs</w>": 159, "airy</w>": 160, "ak": 161, "aked</w>": 162, "aki</w>": 163, "akin</w>": 164, "al": 165, "al</w>": 166, "ala": 167, "albar": 168, "alcoh": 169, "ale</w>": 170, "alente": 171, "alex": 172, "alfal": 173, "alfro": 174, "ali": 175, "alic": 176, "all": 177, "all</w>": 178, "alla</w>": 179, "alli": 180, "allo</w>": 181, "allow": 182, "ally": 183, "ally</w>": 184, "almo": 185, "almon": 186, "almond": 187, "almost": 188, "alo": 189, "als</w>": 190, "alsac": 191, "alsati": 192, "also</w>": 193, "alter": 194, "alto</w>": 195, "alvar": 196, "am": 197, "am</w>": 198, "ama": 199, "ama</w>": 200, "amal": 201, "amar": 202, "amas</w>": 203, "amber": 204, "ame</w>": 205, "amer": 206, "americ": 207, "amid</w>": 208, "amphor": 209, "ampli": 210, "ams</w>": 211, "amy</w>": 212, "an": 213, "an</w>": 214, "ana</w>": 215, "anc": 216, "ance</w>": 217, "anch": 218, "anci": 219, "anco</w>": 220, "ancy</w>": 221, "and": 222, "and</w>": 223, "ander": 224, "ane</w>": 225, "ang": 226, "angel": 227, "ani": 228, "ani</w>": 229, "ania</w>": 230, "anis": 231, "anj": 232, "ann": 233, "anne</w>": 234, "anni": 235, "anno": 236, "announ": 237, "annu": 238, "ano</w>": 239, "ans</w>": 240, "answ": 241, "ant": 242, "ant</w>": 243, "ante": 244, "ante</w>": 245, "anti": 246, "anti</w>": 247, "antic": 248, "anticipa": 249, "anto</w>": 250, "ants</w>": 251, "any": 252, "any</w>": 253, "anza</w>": 254, "ao</w>": 255, "aper": 256, "app": 257, "appea": 258, "appear": 259, "appella": 260, "appetiz": 261, "apple": 262, "apples": 263, "appreci": 264, "appro": 265, "approa": 266, "approach": 267, "appropri": 268, "approxi": 269, "appy</w>": 270, "apr": 271, "aprico": 272, "apricot": 273, "ar": 274, "ar</w>": 275, "ara</w>": 276, "arag": 277, "arch": 278, "archit": 279, "architec": 280, "ard</w>": 281, "ards</w>": 282, "are</w>": 283, "area</w>": 284, "argen": 285, "argentin": 286, "argu": 287, "ari": 288, "arly</w>": 289, "arom": 290, "aroma": 291, "aromat": 292, "arri": 293, "ars</w>": 294, "art": 295, "art</w>": 296, "arti": 297, "artis": 298, "arugu": 299, "ary</w>": 300, "as": 301, "as</w>": 302, "aser</w>": 303, "ash": 304, "ash</w>": 305, "ashy</w>": 306, "asi": 307, "ask</w>": 308, "asp": 309, "aspar": 310, "asphal": 311, "ass": 312, "assem": 313, "asser": 314, "assi": 315, "associ": 316, "assor": 317, "ast": 318, "aston": 319, "astr": 320, "astrin": 321, "at": 322, "at</w>": 323, "ata</w>": 324, "ate": 325, "ate</w>": 326, "ated</w>": 327, "ates</w>": 328, "atlan": 329, "ato</w>": 330, "atop</w>": 331, "ator</w>": 332, "ats</w>": 333, "att": 334, "attemp": 335, "atten": 336, "attenti": 337, "attrac": 338, "attribu": 339, "aty": 340, "au": 341, "au</w>": 342, "aube</w>": 343, "auce</w>": 344, "aug": 345, "augu": 346, "aussi": 347, "aust": 348, "auster": 349, "austral": 350, "austri": 351, "auth": 352, "authen": 353, "author": 354, "autum": 355, "aux</w>": 356, "ava": 357, "ava</w>": 358, "availa": 359, "avas</w>": 360, "avo": 361, "aw": 362, "awar": 363, "away</w>": 364, "awk": 365, "ay</w>": 366, "b</w>": 367, "ba": 368, "ba</w>": 369, "bab": 370, "baby</w>": 371, "bac": 372, "back": 373, "back</w>": 374, "bad</w>": 375, "bag": 376, "baga</w>": 377, "bagu": 378, "bak": 379, "baked": 380, "baking": 381, "bal": 382, "bal</w>": 383, "balan": 384, "ball</w>": 385, "balsam": 386, "ban": 387, "banan": 388, "band": 389, "band</w>": 390, "banda": 391, "bang</w>": 392, "bank</w>": 393, "bar": 394, "bar</w>": 395, "barbar": 396, "barbares": 397, "barbe": 398, "barbecu": 399, "bargain": 400, "bark</w>": 401, "barn": 402, "barnyar": 403, "barre": 404, "barrel": 405, "barri": 406, "bartle": 407, "bas": 408, "base</w>": 409, "basi": 410, "bask": 411, "bass</w>": 412, "bath</w>": 413, "bay</w>": 414, "bb": 415, "bbi": 416, "bble</w>": 417, "bbq</w>": 418, "bby</w>": 419, "be": 420, "be</w>": 421, "bea": 422, "bead</w>": 423, "beam</w>": 424, "bean</w>": 425, "bear</w>": 426, "beat</w>": 427, "beau": 428, "beaujola": 429, "beauti": 430, "beck": 431, "bed</w>": 432, "bee": 433, "beef</w>": 434, "been</w>": 435, "beer</w>": 436, "bees": 437, "beet</w>": 438, "beetro": 439, "beg": 440, "begin": 441, "begs</w>": 442, "begu": 443, "beit</w>": 444, "bel": 445, "bel</w>": 446, "belie": 447, "bell": 448, "bell</w>": 449, "belli": 450, "belong": 451, "ben": 452, "ben</w>": 453, "bench": 454, "benef": 455, "bent</w>": 456, "ber": 457, "ber</w>": 458, "bera</w>": 459, "berg</w>": 460, "bergam": 461, "bern": 462, "berry": 463, "bert</w>": 464, "bes": 465, "bes</w>": 466, "best": 467, "best</w>": 468, "bet": 469, "bet</w>": 470, "bey": 471, "bi": 472, "bi</w>": 473, "bien</w>": 474, "big": 475, "big</w>": 476, "bigg": 477, "bil": 478, "bile</w>": 479, "bill</w>": 480, "bin</w>": 481, "bing</w>": 482, "biodynam": 483, "bir": 484, "bird</w>": 485, "bis": 486, "biscu": 487, "bit": 488, "bit</w>": 489, "bite</w>": 490, "bits</w>": 491, "bitter": 492, "bl": 493, "bla": 494, "blac": 495, "black": 496, "blan": 497, "blanc": 498, "blau": 499, "blaufrn": 500, "ble": 501, "ble</w>": 502, "bled</w>": 503, "blen": 504, "blend": 505, "bler</w>": 506, "bles</w>": 507, "blo": 508, "block": 509, "bloo": 510, "blossom": 511, "blow": 512, "blow</w>": 513, "blu": 514, "blue": 515, "blue</w>": 516, "bly</w>": 517, "bo": 518, "boa": 519, "boa</w>": 520, "bob</w>": 521, "body</w>": 522, "bois</w>": 523, "boister": 524, "bol": 525, "bold</w>": 526, "bom": 527, "bomb</w>": 528, "bomba": 529, "bon": 530, "bon</w>": 531, "bonar": 532, "bone": 533, "bone</w>": 534, "boo": 535, "book</w>": 536, "boot</w>": 537, "bor": 538, "bord": 539, "bordeaux": 540, "border": 541, "bos": 542, "bos</w>": 543, "bosc</w>": 544, "botan": 545, "both</w>": 546, "botry": 547, "botrytis": 548, "bott": 549, "bou": 550, "boun": 551, "bouqu": 552, "bour": 553, "bourge": 554, "boush": 555, "bow": 556, "bow</w>": 557, "bowl</w>": 558, "box": 559, "box</w>": 560, "boy": 561, "boy</w>": 562, "boysen": 563, "br": 564, "bra": 565, "brac": 566, "bram": 567, "bran": 568, "brand": 569, "brau": 570, "bre": 571, "brea": 572, "bread": 573, "break": 574, "breez": 575, "bres": 576, "bri": 577, "bria</w>": 578, "brie": 579, "bright": 580, "brilli": 581, "brin": 582, "bring": 583, "bris": 584, "brist": 585, "brit": 586, "brix</w>": 587, "brle</w>": 588, "bro": 589, "broad": 590, "broo": 591, "brow": 592, "brown": 593, "bru": 594, "bruis": 595, "brun": 596, "brus": 597, "brut</w>": 598, "bs</w>": 599, "bu": 600, "bu</w>": 601, "bub": 602, "bubble": 603, "buck</w>": 604, "bud": 605, "bud</w>": 606, "buds</w>": 607, "buff": 608, "buil": 609, "bul": 610, "bulk</w>": 611, "bulli": 612, "bun": 613, "bund": 614, "buo": 615, "buoy": 616, "bur": 617, "burg": 618, "burg</w>": 619, "burgun": 620, "burn": 621, "burn</w>": 622, "burnt": 623, "but</w>": 624, "butt": 625, "butter": 626, "buttered": 627, "buy</w>": 628, "by": 629, "by</w>": 630, "bythe": 631, "c</w>": 632, "ca": 633, "ca</w>": 634, "cab": 635, "cab</w>": 636, "caber": 637, "caberne": 638, "cabernet": 639, "cabs</w>": 640, "cac": 641, "caf</w>": 642, "cake</w>": 643, "cal": 644, "cal</w>": 645, "cala": 646, "cali": 647, "calibra": 648, "calisto": 649, "call</w>": 650, "calm</w>": 651, "calyp": 652, "cam": 653, "came</w>": 654, "camp": 655, "camp</w>": 656, "can": 657, "can</w>": 658, "cana": 659, "canai": 660, "candid": 661, "candy": 662, "cann": 663, "cannon": 664, "cannu": 665, "cant": 666, "cant</w>": 667, "cantal": 668, "cantel": 669, "cany": 670, "cap": 671, "cap</w>": 672, "cape</w>": 673, "capp": 674, "cappuc": 675, "captiv": 676, "car": 677, "caram": 678, "caramel": 679, "carbon": 680, "card</w>": 681, "cardam": 682, "care": 683, "care</w>": 684, "carign": 685, "carmen": 686, "carna": 687, "carner": 688, "caro": 689, "carol": 690, "carri": 691, "carti": 692, "cas": 693, "cas</w>": 694, "casa": 695, "casa</w>": 696, "casca": 697, "case</w>": 698, "cashe": 699, "cass": 700, "cassis": 701, "cast": 702, "cast</w>": 703, "cat": 704, "cat</w>": 705, "catal": 706, "catarra": 707, "cate": 708, "categ": 709, "cau": 710, "cava</w>": 711, "cay": 712, "cco</w>": 713, "ce": 714, "ce</w>": 715, "ced": 716, "ced</w>": 717, "cedar": 718, "cede</w>": 719, "cei": 720, "cel": 721, "cele": 722, "celebra": 723, "cell": 724, "cellar": 725, "cen": 726, "cent</w>": 727, "centra": 728, "centu": 729, "cep": 730, "cept</w>": 731, "cer": 732, "ces": 733, "ces</w>": 734, "ch": 735, "ch</w>": 736, "cha": 737, "cha</w>": 738, "chabli": 739, "chablis": 740, "chablisi": 741, "chal": 742, "challeng": 743, "cham": 744, "chamber": 745, "chamom": 746, "champa": 747, "champagn": 748, "chan": 749, "chapar": 750, "char": 751, "char</w>": 752, "charac": 753, "charbon": 754, "chardon": 755, "chass": 756, "chat": 757, "che": 758, "che</w>": 759, "chea": 760, "ched</w>": 761, "chee": 762, "cheer": 763, "chees": 764, "cheese": 765, "chehal": 766, "chel": 767, "chel</w>": 768, "chem": 769, "chen": 770, "chen</w>": 771, "cher": 772, "cher</w>": 773, "cherry": 774, "ches</w>": 775, "chest": 776, "chet</w>": 777, "chi": 778, "chi</w>": 779, "chiff": 780, "chil": 781, "chin": 782, "chio</w>": 783, "chip</w>": 784, "chis": 785, "cho": 786, "cho</w>": 787, "choco": 788, "chocola": 789, "chop</w>": 790, "chor": 791, "christ": 792, "christop": 793, "chs</w>": 794, "chtea": 795, "chu": 796, "chun": 797, "chur": 798, "chus</w>": 799, "chy</w>": 800, "ci": 801, "cia</w>": 802, "cial</w>": 803, "cid": 804, "ciel</w>": 805, "cier</w>": 806, "cies</w>": 807, "cigar": 808, "cil": 809, "cil</w>": 810, "cili": 811, "cin": 812, "cing</w>": 813, "cini</w>": 814, "cinnam": 815, "cinnamon": 816, "cino</w>": 817, "cio</w>": 818, "cir": 819, "cit": 820, "citru": 821, "citrus": 822, "city</w>": 823, "ck": 824, "ck</w>": 825, "cked</w>": 826, "cks</w>": 827, "cky</w>": 828, "cl": 829, "cla": 830, "clac": 831, "clai": 832, "claire": 833, "clar": 834, "class": 835, "classi": 836, "clay</w>": 837, "cle": 838, "clean": 839, "clemen": 840, "clen": 841, "cli": 842, "clif": 843, "cling": 844, "clo": 845, "cloa": 846, "clos</w>": 847, "close": 848, "clou": 849, "clu": 850, "clum": 851, "co": 852, "co</w>": 853, "coa": 854, "coal": 855, "coal</w>": 856, "coar": 857, "coast": 858, "coat</w>": 859, "coax": 860, "coax</w>": 861, "cob": 862, "cock": 863, "coco": 864, "cocoa": 865, "cocon": 866, "coff": 867, "coffe": 868, "coffee": 869, "cogn": 870, "coh": 871, "cohes": 872, "col": 873, "col</w>": 874, "cola": 875, "cola</w>": 876, "cold</w>": 877, "collabor": 878, "collap": 879, "colle": 880, "colomb": 881, "color": 882, "colum": 883, "columbi": 884, "com": 885, "comb": 886, "comb</w>": 887, "combin": 888, "come</w>": 889, "comfor": 890, "comm": 891, "commen": 892, "commer": 893, "common": 894, "comp": 895, "compac": 896, "compan": 897, "compar": 898, "compe": 899, "compen": 900, "compensa": 901, "compet": 902, "compl": 903, "compla": 904, "comple": 905, "complex": 906, "compli": 907, "complic": 908, "compo": 909, "compon": 910, "compos": 911, "compris": 912, "con": 913, "cona</w>": 914, "conc": 915, "concer": 916, "conclu": 917, "conco": 918, "condri": 919, "cone</w>": 920, "confe": 921, "confid": 922, "confir": 923, "conj": 924, "conne": 925, "consi": 926, "consid": 927, "consider": 928, "consist": 929, "const": 930, "construc": 931, "consu": 932, "consul": 933, "consum": 934, "consump": 935, "cont": 936, "contemp": 937, "contin": 938, "continu": 939, "contra": 940, "contribu": 941, "contro": 942, "conve": 943, "conven": 944, "convin": 945, "coo": 946, "cooki": 947, "cool": 948, "cool</w>": 949, "coomb": 950, "coon": 951, "coonawar": 952, "cooper": 953, "cop": 954, "copp": 955, "copper": 956, "cor": 957, "cord</w>": 958, "core</w>": 959, "cori": 960, "cork</w>": 961, "corn": 962, "corn</w>": 963, "corre": 964, "corton": 965, "corvin": 966, "cos</w>": 967, "cost</w>": 968, "cott": 969, "cou": 970, "coun": 971, "counter": 972, "country": 973, "cour": 974, "coura": 975, "court": 976, "cove": 977, "cover": 978, "cr": 979, "cra": 980, "crab</w>": 981, "crac": 982, "craf": 983, "cran": 984, "cre": 985, "cre</w>": 986, "crea": 987, "cream": 988, "creamy": 989, "cred": 990, "cree": 991, "cri": 992, "crisp": 993, "crit": 994, "critic": 995, "crme</w>": 996, "cro": 997, "croa": 998, "crop</w>": 999, "crow": 1000, "crowd": 1001, "cru": 1002, "cru</w>": 1003, "crum": 1004, "crun": 1005, "crus</w>": 1006, "crushed": 1007, "cruz": 1008, "cruz</w>": 1009, "cry": 1010, "cryst": 1011, "crystal": 1012, "crystall": 1013, "ct</w>": 1014, "cte</w>": 1015, "cted</w>": 1016, "ctes</w>": 1017, "ction": 1018, "ctly</w>": 1019, "cts</w>": 1020, "ctu": 1021, "cu": 1022, "cucu": 1023, "cuis": 1024, "cul": 1025, "culin": 1026, "culmin": 1027, "cult</w>": 1028, "cum": 1029, "cum</w>": 1030, "cup</w>": 1031, "cur": 1032, "curd</w>": 1033, "cure</w>": 1034, "curio": 1035, "curr": 1036, "curran": 1037, "currant": 1038, "curren": 1039, "cushi": 1040, "cut</w>": 1041, "cuts</w>": 1042, "cuve</w>": 1043, "cy": 1044, "cy</w>": 1045, "d</w>": 1046, "da": 1047, "da</w>": 1048, "dal": 1049, "dam": 1050, "damp</w>": 1051, "dan": 1052, "dan</w>": 1053, "dapp": 1054, "dar": 1055, "dar</w>": 1056, "dark": 1057, "dark</w>": 1058, "dary</w>": 1059, "das</w>": 1060, "dash</w>": 1061, "dast": 1062, "date</w>": 1063, "dau": 1064, "day</w>": 1065, "days</w>": 1066, "dazz": 1067, "dd": 1068, "dd</w>": 1069, "dded</w>": 1070, "ddle</w>": 1071, "ddy</w>": 1072, "de": 1073, "de</w>": 1074, "dea": 1075, "dead</w>": 1076, "deal</w>": 1077, "dec": 1078, "deca": 1079, "decan": 1080, "decep": 1081, "decid": 1082, "decor": 1083, "ded</w>": 1084, "dedic": 1085, "dee": 1086, "deep": 1087, "deep</w>": 1088, "def": 1089, "defic": 1090, "defin": 1091, "deft</w>": 1092, "del": 1093, "del</w>": 1094, "delec": 1095, "deli": 1096, "delic": 1097, "delight": 1098, "delinea": 1099, "dem": 1100, "deman": 1101, "demon": 1102, "den": 1103, "den</w>": 1104, "dens": 1105, "dent</w>": 1106, "dep": 1107, "depen": 1108, "der": 1109, "der</w>": 1110, "deri": 1111, "ders</w>": 1112, "des": 1113, "des</w>": 1114, "descri": 1115, "descrip": 1116, "deser": 1117, "desi": 1118, "design": 1119, "desser": 1120, "dest": 1121, "dest</w>": 1122, "det</w>": 1123, "deta": 1124, "dete": 1125, "detec": 1126, "deter": 1127, "determin": 1128, "detrac": 1129, "deut": 1130, "devel": 1131, "develop": 1132, "devo": 1133, "dew</w>": 1134, "dge</w>": 1135, "dged</w>": 1136, "di": 1137, "di</w>": 1138, "dial": 1139, "dial</w>": 1140, "diam": 1141, "dian</w>": 1142, "dic": 1143, "did": 1144, "did</w>": 1145, "died": 1146, "died</w>": 1147, "dies": 1148, "dies</w>": 1149, "dif": 1150, "differ": 1151, "difficul": 1152, "dig</w>": 1153, "dij": 1154, "dil": 1155, "dill</w>": 1156, "dilu": 1157, "dily</w>": 1158, "dimen": 1159, "dimensi": 1160, "dimin": 1161, "din": 1162, "ding</w>": 1163, "dir": 1164, "dire": 1165, "direc": 1166, "dirt</w>": 1167, "dis": 1168, "disapp": 1169, "disappo": 1170, "discer": 1171, "disgor": 1172, "dish</w>": 1173, "disjo": 1174, "dissipa": 1175, "dist": 1176, "distinc": 1177, "distingu": 1178, "distrac": 1179, "distri": 1180, "distribu": 1181, "diti": 1182, "dium</w>": 1183, "dle": 1184, "dle</w>": 1185, "dled</w>": 1186, "dles</w>": 1187, "dly</w>": 1188, "do": 1189, "do</w>": 1190, "doc</w>": 1191, "does": 1192, "does</w>": 1193, "dog</w>": 1194, "dol": 1195, "dolce": 1196, "dom": 1197, "dom</w>": 1198, "doma": 1199, "domin": 1200, "don": 1201, "don</w>": 1202, "done</w>": 1203, "dont</w>": 1204, "door</w>": 1205, "dor": 1206, "dor</w>": 1207, "dos</w>": 1208, "dose</w>": 1209, "dot": 1210, "dot</w>": 1211, "dou": 1212, "doub": 1213, "dough": 1214, "dour": 1215, "dow": 1216, "dow</w>": 1217, "down": 1218, "down</w>": 1219, "dr": 1220, "dr</w>": 1221, "dra": 1222, "drama": 1223, "draw": 1224, "draw</w>": 1225, "dre</w>": 1226, "drea": 1227, "dren": 1228, "dri": 1229, "dried": 1230, "drin": 1231, "drink": 1232, "drizz": 1233, "dro": 1234, "drop</w>": 1235, "drou": 1236, "drum</w>": 1237, "dry": 1238, "dry</w>": 1239, "ds": 1240, "ds</w>": 1241, "du": 1242, "du</w>": 1243, "duc": 1244, "duck</w>": 1245, "due</w>": 1246, "dul": 1247, "dull</w>": 1248, "dum": 1249, "dun": 1250, "dup</w>": 1251, "dupa": 1252, "dur": 1253, "dust": 1254, "dust</w>": 1255, "dutt": 1256, "dy": 1257, "dy</w>": 1258, "dynam": 1259, "e</w>": 1260, "ea": 1261, "ea</w>": 1262, "each</w>": 1263, "eal</w>": 1264, "ean</w>": 1265, "ear": 1266, "ear</w>": 1267, "earl</w>": 1268, "earn</w>": 1269, "ears</w>": 1270, "earth": 1271, "earthy": 1272, "eas": 1273, "eas</w>": 1274, "ease</w>": 1275, "easi": 1276, "east": 1277, "east</w>": 1278, "easy": 1279, "easy</w>": 1280, "easyto": 1281, "eath</w>": 1282, "eau": 1283, "eau</w>": 1284, "eaus</w>": 1285, "eaux</w>": 1286, "ebulli": 1287, "ec": 1288, "echo": 1289, "echo</w>": 1290, "eco": 1291, "ecu": 1292, "ed": 1293, "ed</w>": 1294, "eda</w>": 1295, "eden</w>": 1296, "eder": 1297, "edg": 1298, "edge</w>": 1299, "edger": 1300, "edgy</w>": 1301, "edly</w>": 1302, "edna</w>": 1303, "ee": 1304, "ee</w>": 1305, "eed</w>": 1306, "eeds</w>": 1307, "eek</w>": 1308, "eel</w>": 1309, "een</w>": 1310, "eep</w>": 1311, "eet</w>": 1312, "eets</w>": 1313, "eez": 1314, "ef": 1315, "effe": 1316, "effec": 1317, "effer": 1318, "efferves": 1319, "effor": 1320, "effort": 1321, "effu": 1322, "eg": 1323, "ega</w>": 1324, "egg</w>": 1325, "egi": 1326, "egra": 1327, "egran": 1328, "ei": 1329, "eis": 1330, "eiswe": 1331, "el": 1332, "el</w>": 1333, "elabor": 1334, "elder": 1335, "ele": 1336, "elec": 1337, "eled</w>": 1338, "eleg": 1339, "elev": 1340, "eli": 1341, "ell": 1342, "ell</w>": 1343, "ella": 1344, "ella</w>": 1345, "elle": 1346, "elli</w>": 1347, "ello</w>": 1348, "ells</w>": 1349, "elo</w>": 1350, "els</w>": 1351, "else</w>": 1352, "elu": 1353, "ely": 1354, "ely</w>": 1355, "em": 1356, "em</w>": 1357, "eman": 1358, "embelli": 1359, "embrac": 1360, "emer": 1361, "emi": 1362, "emin": 1363, "emp": 1364, "empha": 1365, "emphasiz": 1366, "emplo": 1367, "en": 1368, "en</w>": 1369, "ena</w>": 1370, "enca": 1371, "ence</w>": 1372, "ench</w>": 1373, "encoura": 1374, "ency</w>": 1375, "end": 1376, "end</w>": 1377, "ends</w>": 1378, "ened</w>": 1379, "ener": 1380, "ener</w>": 1381, "energi": 1382, "eng": 1383, "enh": 1384, "enhan": 1385, "enjo": 1386, "enjoy": 1387, "enli": 1388, "enne</w>": 1389, "enni": 1390, "eno": 1391, "enolog": 1392, "enor": 1393, "enrich": 1394, "ens": 1395, "ens</w>": 1396, "ense": 1397, "ense</w>": 1398, "ent": 1399, "ent</w>": 1400, "ente": 1401, "ente</w>": 1402, "enter": 1403, "enthusi": 1404, "enti": 1405, "entic": 1406, "entran": 1407, "entre": 1408, "entry": 1409, "ents</w>": 1410, "envel": 1411, "envelop": 1412, "ep": 1413, "epic</w>": 1414, "epitom": 1415, "ept</w>": 1416, "equ": 1417, "equi": 1418, "er": 1419, "er</w>": 1420, "era": 1421, "era</w>": 1422, "ere</w>": 1423, "ered</w>": 1424, "eri</w>": 1425, "eric</w>": 1426, "erna": 1427, "ero</w>": 1428, "erra</w>": 1429, "erry</w>": 1430, "ers</w>": 1431, "ert</w>": 1432, "erup": 1433, "ery</w>": 1434, "es": 1435, "es</w>": 1436, "esa": 1437, "ese</w>": 1438, "espe": 1439, "espres": 1440, "espresso": 1441, "ess": 1442, "ess</w>": 1443, "essen": 1444, "est": 1445, "est</w>": 1446, "establi": 1447, "estate": 1448, "esty": 1449, "esy</w>": 1450, "et": 1451, "et</w>": 1452, "eted</w>": 1453, "eth": 1454, "ether": 1455, "eti": 1456, "etna</w>": 1457, "ets</w>": 1458, "ett": 1459, "ette</w>": 1460, "etti</w>": 1461, "etto</w>": 1462, "eu": 1463, "eu</w>": 1464, "eucalyp": 1465, "eup</w>": 1466, "eur": 1467, "eur</w>": 1468, "euro": 1469, "ev": 1470, "even": 1471, "even</w>": 1472, "ever": 1473, "ever</w>": 1474, "every": 1475, "evid": 1476, "evin</w>": 1477, "evo": 1478, "evoca": 1479, "evol": 1480, "ex": 1481, "exac": 1482, "exagg": 1483, "exam": 1484, "exc": 1485, "excee": 1486, "excell": 1487, "excep": 1488, "exces": 1489, "excit": 1490, "exclu": 1491, "execu": 1492, "exemp": 1493, "exempl": 1494, "exempli": 1495, "exhi": 1496, "exhib": 1497, "exi": 1498, "exo": 1499, "exp": 1500, "expan": 1501, "expec": 1502, "expen": 1503, "exper": 1504, "experi": 1505, "expl": 1506, "explo": 1507, "explor": 1508, "expo": 1509, "expres": 1510, "ext": 1511, "extra": 1512, "extrac": 1513, "extravag": 1514, "extre": 1515, "exu": 1516, "ey": 1517, "ey</w>": 1518, "eye": 1519, "eye</w>": 1520, "eys</w>": 1521, "f</w>": 1522, "fa": 1523, "fa</w>": 1524, "fac": 1525, "face</w>": 1526, "fact</w>": 1527, "fad": 1528, "fade</w>": 1529, "fai": 1530, "fail</w>": 1531, "faint": 1532, "fair": 1533, "fair</w>": 1534, "fal": 1535, "falangh": 1536, "fall</w>": 1537, "fam": 1538, "famil": 1539, "famili": 1540, "family": 1541, "fan": 1542, "fan</w>": 1543, "fans</w>": 1544, "fantast": 1545, "far": 1546, "far</w>": 1547, "fare</w>": 1548, "farm": 1549, "farm</w>": 1550, "fascin": 1551, "fashi": 1552, "fast": 1553, "fast</w>": 1554, "fat</w>": 1555, "fatt": 1556, "faul": 1557, "fav": 1558, "favor": 1559, "fe": 1560, "fe</w>": 1561, "fea": 1562, "feather": 1563, "feed</w>": 1564, "feel": 1565, "feel</w>": 1566, "feet</w>": 1567, "fel": 1568, "felt</w>": 1569, "femin": 1570, "fen": 1571, "fer": 1572, "fer</w>": 1573, "fermen": 1574, "fern</w>": 1575, "fers</w>": 1576, "feu": 1577, "few</w>": 1578, "ff": 1579, "ff</w>": 1580, "ffe": 1581, "ffic": 1582, "ffl": 1583, "ffle</w>": 1584, "ffs</w>": 1585, "ffy</w>": 1586, "fi": 1587, "fi</w>": 1588, "fic": 1589, "fic</w>": 1590, "fid": 1591, "fied</w>": 1592, "fiel": 1593, "fier": 1594, "fies</w>": 1595, "fif": 1596, "fig": 1597, "fig</w>": 1598, "figs</w>": 1599, "fil": 1600, "file</w>": 1601, "fili": 1602, "fill</w>": 1603, "fin": 1604, "find</w>": 1605, "fine": 1606, "fine</w>": 1607, "finegra": 1608, "fines": 1609, "finet": 1610, "finetun": 1611, "finis": 1612, "finish": 1613, "fino</w>": 1614, "fir": 1615, "fir</w>": 1616, "fire": 1617, "fire</w>": 1618, "firm": 1619, "firm</w>": 1620, "first": 1621, "fish</w>": 1622, "fit": 1623, "fit</w>": 1624, "fits</w>": 1625, "five": 1626, "five</w>": 1627, "fizz": 1628, "fizz</w>": 1629, "fl": 1630, "fla": 1631, "flag": 1632, "flam": 1633, "flamboy": 1634, "flan": 1635, "flat": 1636, "flat</w>": 1637, "flatt": 1638, "flav": 1639, "flavor": 1640, "flavors": 1641, "fle": 1642, "fles": 1643, "flesh": 1644, "fli": 1645, "flir": 1646, "flo": 1647, "floo": 1648, "flor": 1649, "floral": 1650, "flou": 1651, "flow": 1652, "flow</w>": 1653, "flower": 1654, "flu": 1655, "fo": 1656, "foa": 1657, "foam</w>": 1658, "focu": 1659, "fog</w>": 1660, "foil</w>": 1661, "fol": 1662, "fold</w>": 1663, "foli": 1664, "follow": 1665, "fon": 1666, "foo": 1667, "food": 1668, "food</w>": 1669, "foot</w>": 1670, "footh": 1671, "for": 1672, "for</w>": 1673, "force": 1674, "ford</w>": 1675, "fore": 1676, "fore</w>": 1677, "forest": 1678, "form</w>": 1679, "formu": 1680, "forni": 1681, "fort</w>": 1682, "fortun": 1683, "forwar": 1684, "fou": 1685, "foun": 1686, "four": 1687, "four</w>": 1688, "fow": 1689, "fox": 1690, "foxy</w>": 1691, "fr": 1692, "fra": 1693, "frag": 1694, "fragran": 1695, "fram": 1696, "fran": 1697, "franc": 1698, "francis": 1699, "frapp": 1700, "fre": 1701, "freder": 1702, "free": 1703, "free</w>": 1704, "frees": 1705, "frei": 1706, "freixen": 1707, "fren": 1708, "french": 1709, "fres": 1710, "fresh": 1711, "fri": 1712, "frien": 1713, "friend": 1714, "friul": 1715, "frizz": 1716, "frn": 1717, "fro": 1718, "from</w>": 1719, "fron": 1720, "front": 1721, "fru": 1722, "fruit": 1723, "fruiti": 1724, "fruits": 1725, "fruity": 1726, "fs</w>": 1727, "ft</w>": 1728, "fu": 1729, "fud": 1730, "fuel</w>": 1731, "ful": 1732, "ful</w>": 1733, "full": 1734, "full</w>": 1735, "fuls</w>": 1736, "fum</w>": 1737, "fun": 1738, "fun</w>": 1739, "fundam": 1740, "funk</w>": 1741, "fur": 1742, "fur</w>": 1743, "fus</w>": 1744, "fuse</w>": 1745, "fuss</w>": 1746, "fuzz</w>": 1747, "fy": 1748, "fy</w>": 1749, "fyn": 1750, "g</w>": 1751, "ga": 1752, "ga</w>": 1753, "gain": 1754, "gain</w>": 1755, "gal": 1756, "gal</w>": 1757, "gala</w>": 1758, "gam": 1759, "game</w>": 1760, "gamy</w>": 1761, "gan": 1762, "gan</w>": 1763, "gap</w>": 1764, "gaps</w>": 1765, "gar": 1766, "gar</w>": 1767, "garden": 1768, "gargan": 1769, "garn": 1770, "garna": 1771, "garnet": 1772, "garri": 1773, "gary</w>": 1774, "gas": 1775, "gas</w>": 1776, "gase": 1777, "gat</w>": 1778, "gate</w>": 1779, "gather": 1780, "ge": 1781, "ge</w>": 1782, "ged</w>": 1783, "gel": 1784, "gel</w>": 1785, "gely</w>": 1786, "gem</w>": 1787, "gen": 1788, "gen</w>": 1789, "gener": 1790, "gent": 1791, "gent</w>": 1792, "genu": 1793, "geor": 1794, "georgi": 1795, "ger": 1796, "ger</w>": 1797, "gerani": 1798, "ges</w>": 1799, "get": 1800, "get</w>": 1801, "gets</w>": 1802, "gev": 1803, "gew": 1804, "gewr": 1805, "gewur": 1806, "gg": 1807, "gged</w>": 1808, "ggy</w>": 1809, "gh": 1810, "gh</w>": 1811, "ghly</w>": 1812, "ght": 1813, "ght</w>": 1814, "ghta": 1815, "ghts</w>": 1816, "ghty</w>": 1817, "gi": 1818, "gid</w>": 1819, "gigan": 1820, "gin": 1821, "gin</w>": 1822, "ging": 1823, "ging</w>": 1824, "ginger": 1825, "gio": 1826, "gio</w>": 1827, "gios</w>": 1828, "gir": 1829, "give</w>": 1830, "gl": 1831, "gl</w>": 1832, "gla": 1833, "gli": 1834, "glia</w>": 1835, "glim": 1836, "glimp": 1837, "glo": 1838, "glu": 1839, "gly": 1840, "glycer": 1841, "glycerin": 1842, "gn": 1843, "gn</w>": 1844, "gne</w>": 1845, "gni</w>": 1846, "gno": 1847, "go": 1848, "go</w>": 1849, "goat</w>": 1850, "goci": 1851, "goes</w>": 1852, "gol": 1853, "gold": 1854, "gold</w>": 1855, "golden": 1856, "gon": 1857, "gon</w>": 1858, "gone</w>": 1859, "goo": 1860, "good": 1861, "good</w>": 1862, "goose": 1863, "gor": 1864, "gorge": 1865, "gos</w>": 1866, "goss": 1867, "got</w>": 1868, "goto</w>": 1869, "gou": 1870, "gr": 1871, "gra": 1872, "grab": 1873, "grab</w>": 1874, "grac": 1875, "grace": 1876, "gradu": 1877, "gran": 1878, "gran</w>": 1879, "grand": 1880, "grap": 1881, "grape": 1882, "grapes": 1883, "graph": 1884, "gras</w>": 1885, "grass": 1886, "gravel": 1887, "graven": 1888, "gravit": 1889, "gre": 1890, "grea": 1891, "gree": 1892, "gree</w>": 1893, "green": 1894, "gren": 1895, "grena": 1896, "grenach": 1897, "grenache": 1898, "grenad": 1899, "grey</w>": 1900, "gri": 1901, "grip</w>": 1902, "gris</w>": 1903, "grit": 1904, "grit</w>": 1905, "gro": 1906, "gros</w>": 1907, "grou": 1908, "grow": 1909, "grow</w>": 1910, "gru": 1911, "gs</w>": 1912, "gsm</w>": 1913, "gu": 1914, "guar": 1915, "guarante": 1916, "gue</w>": 1917, "gues</w>": 1918, "gul": 1919, "gum": 1920, "gum</w>": 1921, "gun": 1922, "gun</w>": 1923, "gut": 1924, "guts</w>": 1925, "gy</w>": 1926, "h</w>": 1927, "ha": 1928, "ha</w>": 1929, "had</w>": 1930, "hair</w>": 1931, "hal": 1932, "half": 1933, "half</w>": 1934, "hall": 1935, "ham": 1936, "ham</w>": 1937, "han": 1938, "hand": 1939, "hand</w>": 1940, "hang": 1941, "hang</w>": 1942, "happ": 1943, "haps</w>": 1944, "har": 1945, "hard": 1946, "hard</w>": 1947, "harde": 1948, "harmon": 1949, "harsh": 1950, "harve": 1951, "has</w>": 1952, "haul</w>": 1953, "haun": 1954, "haut": 1955, "have</w>": 1956, "haw": 1957, "hawthor": 1958, "hay": 1959, "hay</w>": 1960, "haz": 1961, "hazel": 1962, "he": 1963, "he</w>": 1964, "hea": 1965, "head": 1966, "head</w>": 1967, "heal": 1968, "hear": 1969, "heat</w>": 1970, "heavi": 1971, "heavy": 1972, "hed": 1973, "hedger": 1974, "hedoni": 1975, "hef": 1976, "heft</w>": 1977, "hei": 1978, "height": 1979, "hel": 1980, "held</w>": 1981, "help</w>": 1982, "hen": 1983, "her": 1984, "her</w>": 1985, "herb": 1986, "herb</w>": 1987, "herbac": 1988, "herbace": 1989, "herbal": 1990, "here": 1991, "here</w>": 1992, "hermit": 1993, "hes": 1994, "hes</w>": 1995, "hewn</w>": 1996, "hi": 1997, "hib": 1998, "hibiscu": 1999, "hick": 2000, "hid": 2001, "hide</w>": 2002, "high": 2003, "high</w>": 2004, "higher": 2005, "hight": 2006, "hil": 2007, "hill": 2008, "hill</w>": 2009, "hin": 2010, "hint</w>": 2011, "hip</w>": 2012, "hips</w>": 2013, "his</w>": 2014, "hist": 2015, "histori": 2016, "hit</w>": 2017, "hits</w>": 2018, "hlu": 2019, "ho": 2020, "ho</w>": 2021, "hol": 2022, "hold</w>": 2023, "hole</w>": 2024, "hom": 2025, "home": 2026, "home</w>": 2027, "hon": 2028, "honey": 2029, "honeysuc": 2030, "hood</w>": 2031, "hope": 2032, "hope</w>": 2033, "hor": 2034, "hors</w>": 2035, "horse": 2036, "horserad": 2037, "hot</w>": 2038, "hou": 2039, "hour</w>": 2040, "hover": 2041, "how": 2042, "how</w>": 2043, "hu": 2044, "huckle": 2045, "hue</w>": 2046, "hued</w>": 2047, "huge</w>": 2048, "hull</w>": 2049, "hum": 2050, "hun": 2051, "hus": 2052, "hy": 2053, "hybri": 2054, "i</w>": 2055, "ia</w>": 2056, "ial</w>": 2057, "ian": 2058, "ian</w>": 2059, "iano</w>": 2060, "ias</w>": 2061, "ic": 2062, "ic</w>": 2063, "ica</w>": 2064, "ical</w>": 2065, "ically": 2066, "ican</w>": 2067, "ice": 2068, "ice</w>": 2069, "ich</w>": 2070, "ick": 2071, "ick</w>": 2072, "ico</w>": 2073, "icon": 2074, "icon</w>": 2075, "ics</w>": 2076, "icul": 2077, "id": 2078, "id</w>": 2079, "ide</w>": 2080, "idea</w>": 2081, "ided</w>": 2082, "identi": 2083, "ides</w>": 2084, "idi": 2085, "idly</w>": 2086, "ids</w>": 2087, "idu": 2088, "ie": 2089, "ie</w>": 2090, "ief</w>": 2091, "iel": 2092, "iel</w>": 2093, "iels</w>": 2094, "ient</w>": 2095, "ier": 2096, "ier</w>": 2097, "iers</w>": 2098, "ies</w>": 2099, "iest</w>": 2100, "if</w>": 2101, "ific": 2102, "ig": 2103, "ight</w>": 2104, "ign": 2105, "ike</w>": 2106, "il": 2107, "il</w>": 2108, "ila": 2109, "ild</w>": 2110, "ile</w>": 2111, "iled</w>": 2112, "ili": 2113, "ill": 2114, "ill</w>": 2115, "illa</w>": 2116, "illo</w>": 2117, "ills</w>": 2118, "illy": 2119, "illy</w>": 2120, "ils</w>": 2121, "ily</w>": 2122, "im": 2123, "im</w>": 2124, "ima</w>": 2125, "imag": 2126, "imagin": 2127, "imal</w>": 2128, "imbu": 2129, "imm": 2130, "immacu": 2131, "immedi": 2132, "immen": 2133, "imp": 2134, "impar": 2135, "impecca": 2136, "impo": 2137, "impor": 2138, "importan": 2139, "impossi": 2140, "impres": 2141, "imprin": 2142, "impro": 2143, "in": 2144, "in</w>": 2145, "ina</w>": 2146, "inal</w>": 2147, "inaugu": 2148, "inc": 2149, "inc</w>": 2150, "ince</w>": 2151, "incen": 2152, "inclu": 2153, "incor": 2154, "incorpor": 2155, "increa": 2156, "inct</w>": 2157, "ind</w>": 2158, "inde": 2159, "indi": 2160, "indic": 2161, "individu": 2162, "ine": 2163, "ine</w>": 2164, "inea": 2165, "ined</w>": 2166, "ines</w>": 2167, "inet": 2168, "inet</w>": 2169, "inf": 2170, "infan": 2171, "influen": 2172, "infor": 2173, "ing": 2174, "ing</w>": 2175, "inge</w>": 2176, "ings</w>": 2177, "ingu": 2178, "inher": 2179, "inho</w>": 2180, "ini</w>": 2181, "initi": 2182, "ink</w>": 2183, "inky": 2184, "inky</w>": 2185, "inno": 2186, "ino</w>": 2187, "ins</w>": 2188, "insoli": 2189, "insp": 2190, "int": 2191, "int</w>": 2192, "inte": 2193, "integra": 2194, "intelle": 2195, "inten": 2196, "intensi": 2197, "inter": 2198, "interest": 2199, "interfer": 2200, "interpre": 2201, "intert": 2202, "interven": 2203, "into</w>": 2204, "intoxic": 2205, "intri": 2206, "intrica": 2207, "intrigu": 2208, "intro": 2209, "introdu": 2210, "intru": 2211, "ints</w>": 2212, "inty</w>": 2213, "inve": 2214, "invigor": 2215, "invit": 2216, "invol": 2217, "iny</w>": 2218, "inyour": 2219, "inzoli": 2220, "io</w>": 2221, "ion": 2222, "ion</w>": 2223, "ions</w>": 2224, "ious</w>": 2225, "ipa": 2226, "ipe</w>": 2227, "ir": 2228, "ir</w>": 2229, "ira</w>": 2230, "ird</w>": 2231, "ire</w>": 2232, "ired</w>": 2233, "ires</w>": 2234, "iris</w>": 2235, "iro</w>": 2236, "iron": 2237, "iron</w>": 2238, "irresi": 2239, "irs</w>": 2240, "irt</w>": 2241, "is": 2242, "is</w>": 2243, "iscu": 2244, "ise</w>": 2245, "ised</w>": 2246, "ises</w>": 2247, "ish": 2248, "ish</w>": 2249, "isin</w>": 2250, "ism</w>": 2251, "isnt</w>": 2252, "ison</w>": 2253, "iss": 2254, "iss</w>": 2255, "issu": 2256, "ist</w>": 2257, "ister": 2258, "it": 2259, "it</w>": 2260, "ita": 2261, "ita</w>": 2262, "ital": 2263, "italian": 2264, "ite</w>": 2265, "ited</w>": 2266, "iter": 2267, "ites</w>": 2268, "ith</w>": 2269, "iti": 2270, "itif</w>": 2271, "itll</w>": 2272, "ito</w>": 2273, "its": 2274, "its</w>": 2275, "itu": 2276, "ity": 2277, "ity</w>": 2278, "ive</w>": 2279, "ix": 2280, "iz": 2281, "ize</w>": 2282, "ized</w>": 2283, "izes</w>": 2284, "j</w>": 2285, "ja": 2286, "ja</w>": 2287, "jab": 2288, "jac": 2289, "jack": 2290, "jad": 2291, "jala": 2292, "jalape": 2293, "jam": 2294, "jam</w>": 2295, "jammy": 2296, "jan": 2297, "jar": 2298, "jas</w>": 2299, "jasm": 2300, "jc</w>": 2301, "je": 2302, "jean": 2303, "jel": 2304, "jer": 2305, "jim</w>": 2306, "jo": 2307, "jo</w>": 2308, "job</w>": 2309, "joh": 2310, "john</w>": 2311, "join</w>": 2312, "jol": 2313, "jola": 2314, "jolt</w>": 2315, "jor": 2316, "jose": 2317, "jour": 2318, "joy": 2319, "joy</w>": 2320, "ju": 2321, "judic": 2322, "juic": 2323, "juli": 2324, "jump</w>": 2325, "juni": 2326, "just": 2327, "just</w>": 2328, "justi": 2329, "juxta": 2330, "juxtapo": 2331, "k</w>": 2332, "ka": 2333, "ka</w>": 2334, "kab": 2335, "kabinet": 2336, "kal": 2337, "kat": 2338, "kay</w>": 2339, "ke": 2340, "ke</w>": 2341, "ked": 2342, "ked</w>": 2343, "kee": 2344, "keen</w>": 2345, "keep</w>": 2346, "ken": 2347, "ken</w>": 2348, "kept</w>": 2349, "ker": 2350, "ker</w>": 2351, "kers</w>": 2352, "kes</w>": 2353, "ket</w>": 2354, "key": 2355, "key</w>": 2356, "ki": 2357, "kic": 2358, "kick</w>": 2359, "kier</w>": 2360, "kin": 2361, "kin</w>": 2362, "kind</w>": 2363, "king</w>": 2364, "kir": 2365, "kis": 2366, "kish</w>": 2367, "kiss</w>": 2368, "kit": 2369, "kiw": 2370, "kiwi</w>": 2371, "kle</w>": 2372, "kled</w>": 2373, "kles</w>": 2374, "klip": 2375, "kly</w>": 2376, "kn": 2377, "kni": 2378, "knit</w>": 2379, "kno": 2380, "knock": 2381, "know</w>": 2382, "ko": 2383, "ko</w>": 2384, "kra": 2385, "kre": 2386, "ks</w>": 2387, "ku": 2388, "kumqu": 2389, "ky": 2390, "ky</w>": 2391, "l</w>": 2392, "la": 2393, "la</w>": 2394, "lab": 2395, "label": 2396, "labor": 2397, "lac": 2398, "lac</w>": 2399, "lack</w>": 2400, "lacy</w>": 2401, "lady</w>": 2402, "lagar": 2403, "lage</w>": 2404, "lagre": 2405, "laid</w>": 2406, "lait</w>": 2407, "lake</w>": 2408, "lam": 2409, "lama": 2410, "lamb</w>": 2411, "lan": 2412, "lan</w>": 2413, "land": 2414, "land</w>": 2415, "lane</w>": 2416, "langh": 2417, "langu": 2418, "lanol": 2419, "lap": 2420, "lar": 2421, "lar</w>": 2422, "larg": 2423, "las</w>": 2424, "lasag": 2425, "laser": 2426, "last</w>": 2427, "late": 2428, "late</w>": 2429, "lau": 2430, "laur": 2431, "lav": 2432, "lava</w>": 2433, "laven": 2434, "lavis": 2435, "lavish": 2436, "lay": 2437, "lay</w>": 2438, "lays</w>": 2439, "lazy</w>": 2440, "ld": 2441, "ld</w>": 2442, "lder": 2443, "ldnt</w>": 2444, "le": 2445, "le</w>": 2446, "lea": 2447, "lead</w>": 2448, "leaf</w>": 2449, "leafin": 2450, "lean": 2451, "lean</w>": 2452, "leap</w>": 2453, "led": 2454, "led</w>": 2455, "lee</w>": 2456, "lees</w>": 2457, "lef": 2458, "left</w>": 2459, "lefto": 2460, "leg": 2461, "legen": 2462, "legs</w>": 2463, "lember": 2464, "lemon": 2465, "len": 2466, "len</w>": 2467, "lend</w>": 2468, "leng": 2469, "ler": 2470, "ler</w>": 2471, "lers</w>": 2472, "les": 2473, "les</w>": 2474, "less": 2475, "less</w>": 2476, "let": 2477, "let</w>": 2478, "lets</w>": 2479, "lett": 2480, "lettu": 2481, "ley": 2482, "ley</w>": 2483, "leys</w>": 2484, "li": 2485, "li</w>": 2486, "liber": 2487, "lic": 2488, "lic</w>": 2489, "lick</w>": 2490, "licori": 2491, "lie</w>": 2492, "lied</w>": 2493, "lier</w>": 2494, "lies</w>": 2495, "lif": 2496, "life</w>": 2497, "lifesa": 2498, "lift</w>": 2499, "ligh": 2500, "light": 2501, "lighter": 2502, "lign": 2503, "lik": 2504, "like</w>": 2505, "lil": 2506, "lilac": 2507, "lily</w>": 2508, "lim": 2509, "lime": 2510, "lime</w>": 2511, "limel": 2512, "limes": 2513, "limit": 2514, "limited": 2515, "lin": 2516, "line</w>": 2517, "linear": 2518, "ling": 2519, "ling</w>": 2520, "lion</w>": 2521, "lip": 2522, "lip</w>": 2523, "lipp": 2524, "liqu": 2525, "liqueur": 2526, "lis": 2527, "list</w>": 2528, "lit": 2529, "lit</w>": 2530, "little": 2531, "live</w>": 2532, "livel": 2533, "liver": 2534, "ll": 2535, "ll</w>": 2536, "llc</w>": 2537, "lled</w>": 2538, "lli": 2539, "llie": 2540, "llo</w>": 2541, "lls</w>": 2542, "lly</w>": 2543, "lo": 2544, "lo</w>": 2545, "loa": 2546, "load</w>": 2547, "loaf</w>": 2548, "loam</w>": 2549, "lob": 2550, "loc": 2551, "loca": 2552, "lock": 2553, "lock</w>": 2554, "lodi</w>": 2555, "log": 2556, "logan": 2557, "loin</w>": 2558, "lon": 2559, "long": 2560, "long</w>": 2561, "loo": 2562, "look</w>": 2563, "loom</w>": 2564, "lop</w>": 2565, "lops</w>": 2566, "lor": 2567, "lor</w>": 2568, "los</w>": 2569, "lose</w>": 2570, "lost</w>": 2571, "lot": 2572, "lot</w>": 2573, "lots</w>": 2574, "lou": 2575, "loud</w>": 2576, "loure": 2577, "love</w>": 2578, "low": 2579, "low</w>": 2580, "lows</w>": 2581, "lowy</w>": 2582, "ls</w>": 2583, "lt": 2584, "lt</w>": 2585, "ltd</w>": 2586, "lu": 2587, "luis</w>": 2588, "lum": 2589, "lumin": 2590, "lun": 2591, "lur": 2592, "lusc": 2593, "lush": 2594, "lush</w>": 2595, "lux": 2596, "luxu": 2597, "ly": 2598, "ly</w>": 2599, "lyche": 2600, "lyn": 2601, "m</w>": 2602, "ma": 2603, "ma</w>": 2604, "mac": 2605, "macabe": 2606, "macadam": 2607, "macar": 2608, "mace</w>": 2609, "macu": 2610, "made</w>": 2611, "mader": 2612, "mag": 2613, "magni": 2614, "magnific": 2615, "mai": 2616, "main": 2617, "main</w>": 2618, "maj": 2619, "major": 2620, "mak": 2621, "make</w>": 2622, "mal": 2623, "mal</w>": 2624, "mala": 2625, "malbe": 2626, "malbec": 2627, "malo": 2628, "malvasi": 2629, "man": 2630, "man</w>": 2631, "mandar": 2632, "mani": 2633, "mans</w>": 2634, "mansen": 2635, "mant</w>": 2636, "many</w>": 2637, "manz": 2638, "map</w>": 2639, "mar": 2640, "mar</w>": 2641, "mara": 2642, "marasch": 2643, "marc</w>": 2644, "marg": 2645, "margar": 2646, "mari": 2647, "mari</w>": 2648, "marin": 2649, "marjor": 2650, "mark": 2651, "mark</w>": 2652, "marl": 2653, "marmala": 2654, "marqu": 2655, "mars</w>": 2656, "marsan": 2657, "marsh": 2658, "marshmal": 2659, "martin": 2660, "marvel": 2661, "mary</w>": 2662, "marzi": 2663, "mas": 2664, "mas</w>": 2665, "mascal": 2666, "mascul": 2667, "mask</w>": 2668, "mass": 2669, "mass</w>": 2670, "massi": 2671, "master": 2672, "mat": 2673, "mat</w>": 2674, "matar": 2675, "match": 2676, "mate</w>": 2677, "materi": 2678, "matur": 2679, "mau": 2680, "max</w>": 2681, "maxi": 2682, "may": 2683, "may</w>": 2684, "mayac": 2685, "mber": 2686, "mber</w>": 2687, "mble</w>": 2688, "mc": 2689, "mdoc</w>": 2690, "me": 2691, "me</w>": 2692, "mea": 2693, "meal</w>": 2694, "mean": 2695, "mean</w>": 2696, "meas": 2697, "meat": 2698, "meat</w>": 2699, "med": 2700, "med</w>": 2701, "medi": 2702, "medic": 2703, "mediter": 2704, "mediu": 2705, "medium": 2706, "meet</w>": 2707, "mel": 2708, "mel</w>": 2709, "meld</w>": 2710, "mellow": 2711, "melon": 2712, "melt</w>": 2713, "mely</w>": 2714, "mem": 2715, "memor": 2716, "men": 2717, "men</w>": 2718, "mendo": 2719, "ment</w>": 2720, "menth": 2721, "menthol": 2722, "mer": 2723, "mer</w>": 2724, "mere</w>": 2725, "merlot": 2726, "mers</w>": 2727, "mes": 2728, "mes</w>": 2729, "mesh": 2730, "mesh</w>": 2731, "met</w>": 2732, "metal": 2733, "meth": 2734, "meun": 2735, "meur": 2736, "mex": 2737, "mey": 2738, "mey</w>": 2739, "mi": 2740, "mi</w>": 2741, "mic": 2742, "micha": 2743, "michel": 2744, "micro": 2745, "mid": 2746, "mid</w>": 2747, "middle": 2748, "mier</w>": 2749, "mike</w>": 2750, "mil": 2751, "mild</w>": 2752, "milk": 2753, "milk</w>": 2754, "mill": 2755, "mill</w>": 2756, "min": 2757, "mind</w>": 2758, "miner": 2759, "mineral": 2760, "ming": 2761, "ming</w>": 2762, "mini": 2763, "mint": 2764, "mint</w>": 2765, "minu": 2766, "mir": 2767, "mira": 2768, "mirr": 2769, "mis": 2770, "miss</w>": 2771, "mista": 2772, "mit": 2773, "mit</w>": 2774, "miti": 2775, "mix": 2776, "mix</w>": 2777, "ml</w>": 2778, "mm</w>": 2779, "mmy</w>": 2780, "mo": 2781, "mo</w>": 2782, "mocha": 2783, "mode": 2784, "mode</w>": 2785, "moder": 2786, "modern": 2787, "modu": 2788, "mol": 2789, "mola": 2790, "mold</w>": 2791, "mom": 2792, "momen": 2793, "mon": 2794, "mon</w>": 2795, "monastr": 2796, "monda": 2797, "mono": 2798, "monoli": 2799, "mons</w>": 2800, "mont": 2801, "mont</w>": 2802, "montal": 2803, "monte": 2804, "monter": 2805, "montra": 2806, "mor": 2807, "more": 2808, "more</w>": 2809, "morell": 2810, "mos</w>": 2811, "mosca": 2812, "moss</w>": 2813, "most</w>": 2814, "mou": 2815, "moun": 2816, "mounta": 2817, "mountain": 2818, "mourv": 2819, "mourve": 2820, "mous</w>": 2821, "mouth": 2822, "move</w>": 2823, "moya</w>": 2824, "mp": 2825, "mp</w>": 2826, "mps</w>": 2827, "mpy</w>": 2828, "ms</w>": 2829, "mt</w>": 2830, "mu": 2831, "much": 2832, "much</w>": 2833, "mul": 2834, "multi": 2835, "mum</w>": 2836, "mur": 2837, "mur</w>": 2838, "mus": 2839, "mus</w>": 2840, "musc": 2841, "musca": 2842, "mush": 2843, "mushro": 2844, "mushroom": 2845, "musk": 2846, "musk</w>": 2847, "muss": 2848, "must</w>": 2849, "mute</w>": 2850, "my": 2851, "my</w>": 2852, "myster": 2853, "n</w>": 2854, "na": 2855, "na</w>": 2856, "nac": 2857, "naci": 2858, "nacid": 2859, "nail</w>": 2860, "nal</w>": 2861, "nam": 2862, "name</w>": 2863, "nap": 2864, "napa": 2865, "napa</w>": 2866, "nar": 2867, "narrow": 2868, "navar": 2869, "nay</w>": 2870, "ne": 2871, "ne</w>": 2872, "nea": 2873, "near": 2874, "near</w>": 2875, "nebbi": 2876, "nec": 2877, "necess": 2878, "nectar": 2879, "ned": 2880, "ned</w>": 2881, "nee": 2882, "need</w>": 2883, "nego": 2884, "negoti": 2885, "negro": 2886, "nei": 2887, "neigh": 2888, "neighbor": 2889, "nel</w>": 2890, "ner": 2891, "ner</w>": 2892, "nera</w>": 2893, "nero</w>": 2894, "ners</w>": 2895, "nerv": 2896, "nes": 2897, "nes</w>": 2898, "ness</w>": 2899, "net": 2900, "net</w>": 2901, "nett": 2902, "neu": 2903, "never": 2904, "new": 2905, "new</w>": 2906, "nex": 2907, "next</w>": 2908, "ney</w>": 2909, "nez</w>": 2910, "ng</w>": 2911, "ni": 2912, "nic": 2913, "nic</w>": 2914, "nice</w>": 2915, "nick</w>": 2916, "nie": 2917, "nie</w>": 2918, "nik</w>": 2919, "nine</w>": 2920, "ning</w>": 2921, "no": 2922, "no</w>": 2923, "nod</w>": 2924, "noir": 2925, "noir</w>": 2926, "non": 2927, "none": 2928, "none</w>": 2929, "nor": 2930, "nor</w>": 2931, "norm</w>": 2932, "north": 2933, "nose": 2934, "nose</w>": 2935, "not": 2936, "not</w>": 2937, "note": 2938, "note</w>": 2939, "notic": 2940, "noto": 2941, "nou": 2942, "now": 2943, "now</w>": 2944, "ns</w>": 2945, "nt</w>": 2946, "nu": 2947, "nuan": 2948, "num": 2949, "nut": 2950, "nut</w>": 2951, "nutme": 2952, "nuts</w>": 2953, "nutt": 2954, "ny</w>": 2955, "nz</w>": 2956, "o</w>": 2957, "oa": 2958, "oak": 2959, "oak</w>": 2960, "oaky</w>": 2961, "oat": 2962, "ob": 2963, "obs": 2964, "oc": 2965, "occa": 2966, "oce": 2967, "ocean": 2968, "oche</w>": 2969, "oci": 2970, "od": 2971, "od</w>": 2972, "odd</w>": 2973, "ode</w>": 2974, "ody": 2975, "of": 2976, "of</w>": 2977, "off": 2978, "off</w>": 2979, "offer": 2980, "offic": 2981, "oil": 2982, "oil</w>": 2983, "oily</w>": 2984, "ois</w>": 2985, "ok</w>": 2986, "okay</w>": 2987, "ol": 2988, "ol</w>": 2989, "ola": 2990, "ola</w>": 2991, "olallie": 2992, "olas</w>": 2993, "old": 2994, "old</w>": 2995, "ole</w>": 2996, "oli": 2997, "oli</w>": 2998, "olic</w>": 2999, "olis</w>": 3000, "olit</w>": 3001, "olo": 3002, "olo</w>": 3003, "olos</w>": 3004, "om": 3005, "om</w>": 3006, "oma": 3007, "omb": 3008, "ome": 3009, "ome</w>": 3010, "omin": 3011, "on": 3012, "on</w>": 3013, "ona</w>": 3014, "onal</w>": 3015, "once</w>": 3016, "ond</w>": 3017, "one": 3018, "one</w>": 3019, "oned</w>": 3020, "ones</w>": 3021, "ong": 3022, "ong</w>": 3023, "oni": 3024, "oni</w>": 3025, "only</w>": 3026, "ons</w>": 3027, "ont</w>": 3028, "onto</w>": 3029, "ony": 3030, "ony</w>": 3031, "oo": 3032, "ood</w>": 3033, "ool</w>": 3034, "oom": 3035, "oon</w>": 3036, "op": 3037, "op</w>": 3038, "opa": 3039, "ope</w>": 3040, "open": 3041, "open</w>": 3042, "oper": 3043, "opp": 3044, "oppo": 3045, "opti": 3046, "opul": 3047, "or": 3048, "or</w>": 3049, "oran": 3050, "orang": 3051, "orange": 3052, "ordin": 3053, "ore</w>": 3054, "ored</w>": 3055, "oreg": 3056, "org": 3057, "organ": 3058, "ori": 3059, "ori</w>": 3060, "oria</w>": 3061, "orig": 3062, "origin": 3063, "ors</w>": 3064, "ort</w>": 3065, "ory": 3066, "ory</w>": 3067, "os": 3068, "os</w>": 3069, "ose</w>": 3070, "oso": 3071, "oss": 3072, "ossa</w>": 3073, "ot": 3074, "ot</w>": 3075, "other": 3076, "oto</w>": 3077, "ou": 3078, "ou</w>": 3079, "ough</w>": 3080, "ould</w>": 3081, "oun": 3082, "ound</w>": 3083, "oupe</w>": 3084, "our": 3085, "our</w>": 3086, "ours</w>": 3087, "ous": 3088, "ous</w>": 3089, "out": 3090, "out</w>": 3091, "ov": 3092, "oven": 3093, "oven</w>": 3094, "over": 3095, "over</w>": 3096, "overpow": 3097, "overthe": 3098, "overwhel": 3099, "ow": 3100, "ow</w>": 3101, "owed</w>": 3102, "own</w>": 3103, "owns</w>": 3104, "ox": 3105, "oxid": 3106, "oy": 3107, "p</w>": 3108, "pa": 3109, "pac": 3110, "pace</w>": 3111, "paci": 3112, "pack": 3113, "pack</w>": 3114, "pai": 3115, "pair</w>": 3116, "pal": 3117, "pal</w>": 3118, "pala": 3119, "palate": 3120, "pale": 3121, "pale</w>": 3122, "palm</w>": 3123, "pan": 3124, "pan</w>": 3125, "papa": 3126, "papay": 3127, "par": 3128, "par</w>": 3129, "pare</w>": 3130, "park</w>": 3131, "pars": 3132, "part": 3133, "part</w>": 3134, "partic": 3135, "pas": 3136, "paso</w>": 3137, "pass": 3138, "pass</w>": 3139, "passi": 3140, "passion": 3141, "past": 3142, "past</w>": 3143, "pastry": 3144, "pat</w>": 3145, "path</w>": 3146, "pati": 3147, "pau": 3148, "paul</w>": 3149, "pay</w>": 3150, "pays</w>": 3151, "pe": 3152, "pe</w>": 3153, "pea": 3154, "pea</w>": 3155, "peach": 3156, "peak</w>": 3157, "pean": 3158, "pean</w>": 3159, "pear": 3160, "pear</w>": 3161, "peas</w>": 3162, "peat</w>": 3163, "pec": 3164, "pecor": 3165, "ped": 3166, "ped</w>": 3167, "pedi": 3168, "pee": 3169, "pee</w>": 3170, "peek</w>": 3171, "peel</w>": 3172, "pel": 3173, "pel</w>": 3174, "pen": 3175, "pen</w>": 3176, "pencil": 3177, "penetra": 3178, "pepp": 3179, "pepper": 3180, "per": 3181, "per</w>": 3182, "percen": 3183, "percep": 3184, "perenni": 3185, "perfe": 3186, "perfor": 3187, "perfu": 3188, "peri": 3189, "permea": 3190, "perri": 3191, "pers": 3192, "pers</w>": 3193, "persi": 3194, "persist": 3195, "person": 3196, "pert</w>": 3197, "perv": 3198, "perva": 3199, "pery</w>": 3200, "pes</w>": 3201, "pet": 3202, "pet</w>": 3203, "petro": 3204, "pez</w>": 3205, "pg</w>": 3206, "ph": 3207, "ph</w>": 3208, "pha": 3209, "phan": 3210, "phen": 3211, "phi": 3212, "philipp": 3213, "pi": 3214, "pic": 3215, "pice</w>": 3216, "pick</w>": 3217, "picnic": 3218, "pie": 3219, "pie</w>": 3220, "pied": 3221, "pier": 3222, "pil": 3223, "pile</w>": 3224, "pin": 3225, "pin</w>": 3226, "pine</w>": 3227, "pinea": 3228, "pineapp": 3229, "ping</w>": 3230, "pink": 3231, "pink</w>": 3232, "pino": 3233, "pinot": 3234, "pione": 3235, "pipe</w>": 3236, "pipp": 3237, "piqu": 3238, "pis": 3239, "pistach": 3240, "pit": 3241, "pit</w>": 3242, "pite</w>": 3243, "pith</w>": 3244, "pizz": 3245, "pl": 3246, "pla": 3247, "plac": 3248, "plan": 3249, "play": 3250, "play</w>": 3251, "ple": 3252, "ple</w>": 3253, "plea": 3254, "pleas": 3255, "pleasu": 3256, "pled</w>": 3257, "plen": 3258, "ples</w>": 3259, "pli": 3260, "plu": 3261, "plum": 3262, "plum</w>": 3263, "plump": 3264, "plus</w>": 3265, "plush": 3266, "ply</w>": 3267, "po": 3268, "po</w>": 3269, "poa": 3270, "pock": 3271, "pog": 3272, "poin": 3273, "pol": 3274, "poli": 3275, "polic": 3276, "pom": 3277, "pomegran": 3278, "pomer": 3279, "pon": 3280, "ponder": 3281, "pool</w>": 3282, "pop": 3283, "pop</w>": 3284, "pops</w>": 3285, "por": 3286, "pork</w>": 3287, "port": 3288, "port</w>": 3289, "portu": 3290, "portug": 3291, "portugu": 3292, "pos": 3293, "pose</w>": 3294, "positi": 3295, "poss": 3296, "possi": 3297, "pot": 3298, "pota": 3299, "poten": 3300, "potpour": 3301, "pou": 3302, "pouilly": 3303, "poul": 3304, "pour": 3305, "pour</w>": 3306, "poux</w>": 3307, "pow": 3308, "powder": 3309, "power": 3310, "pp": 3311, "pped</w>": 3312, "pper</w>": 3313, "pple</w>": 3314, "ppy</w>": 3315, "pr": 3316, "pra": 3317, "prac": 3318, "practic": 3319, "pre": 3320, "prec": 3321, "preced": 3322, "precis": 3323, "predic": 3324, "predomin": 3325, "prefer": 3326, "premi": 3327, "prepar": 3328, "pres": 3329, "presen": 3330, "preser": 3331, "presti": 3332, "preva": 3333, "pri": 3334, "pric": 3335, "prick": 3336, "prico": 3337, "primar": 3338, "primiti": 3339, "prin": 3340, "princi": 3341, "princip": 3342, "prior": 3343, "pris": 3344, "prist": 3345, "pro": 3346, "prob": 3347, "proble": 3348, "proc": 3349, "produ": 3350, "produc": 3351, "proje": 3352, "prom": 3353, "promin": 3354, "promis": 3355, "pron": 3356, "pronoun": 3357, "prop": 3358, "proper": 3359, "propor": 3360, "propri": 3361, "proprie": 3362, "propriet": 3363, "prosciu": 3364, "prosec": 3365, "prote": 3366, "prou": 3367, "prov": 3368, "proven": 3369, "provid": 3370, "pru": 3371, "prun": 3372, "ps</w>": 3373, "pt</w>": 3374, "ptly</w>": 3375, "pu": 3376, "puck": 3377, "pul": 3378, "pulci": 3379, "pulign": 3380, "pull</w>": 3381, "pulp</w>": 3382, "pump": 3383, "pun": 3384, "punche": 3385, "punctu": 3386, "pur": 3387, "purcha": 3388, "pure</w>": 3389, "purple": 3390, "push</w>": 3391, "put</w>": 3392, "puts</w>": 3393, "py": 3394, "py</w>": 3395, "pyraz": 3396, "pyrazin": 3397, "q</w>": 3398, "qu": 3399, "qua": 3400, "quaf": 3401, "quaff": 3402, "qual": 3403, "quali": 3404, "quant": 3405, "quar": 3406, "que</w>": 3407, "quen": 3408, "ques</w>": 3409, "quest": 3410, "qui": 3411, "quie": 3412, "quin": 3413, "quint": 3414, "quis": 3415, "quit</w>": 3416, "r</w>": 3417, "ra": 3418, "ra</w>": 3419, "rac": 3420, "racy</w>": 3421, "radi": 3422, "rah": 3423, "rah</w>": 3424, "rain": 3425, "rain</w>": 3426, "rais": 3427, "raisin": 3428, "ral": 3429, "ral</w>": 3430, "ram": 3431, "ran": 3432, "ran</w>": 3433, "rank</w>": 3434, "rant</w>": 3435, "rap": 3436, "rar": 3437, "rare</w>": 3438, "ras</w>": 3439, "rasp": 3440, "rate</w>": 3441, "raw": 3442, "raw</w>": 3443, "ray</w>": 3444, "rays</w>": 3445, "raz": 3446, "razor": 3447, "rdd</w>": 3448, "re": 3449, "re</w>": 3450, "rea": 3451, "read</w>": 3452, "ready": 3453, "real": 3454, "real</w>": 3455, "reali": 3456, "rear</w>": 3457, "reason": 3458, "reci": 3459, "recogn": 3460, "recogniz": 3461, "recommen": 3462, "red": 3463, "red</w>": 3464, "redi": 3465, "reds</w>": 3466, "redu": 3467, "ree": 3468, "ree</w>": 3469, "refer": 3470, "refin": 3471, "reflec": 3472, "refresh": 3473, "reg": 3474, "regar": 3475, "regi": 3476, "rei": 3477, "rein": 3478, "reinfor": 3479, "rel": 3480, "rela": 3481, "releas": 3482, "relie": 3483, "rels</w>": 3484, "rely</w>": 3485, "rema": 3486, "remin": 3487, "remo": 3488, "ren": 3489, "ren</w>": 3490, "repea": 3491, "represen": 3492, "repu": 3493, "requ": 3494, "requis": 3495, "res": 3496, "res</w>": 3497, "resem": 3498, "reser": 3499, "reserve": 3500, "resi": 3501, "resid": 3502, "resin": 3503, "resol": 3504, "reson": 3505, "respe": 3506, "respec": 3507, "respon": 3508, "ress</w>": 3509, "rest": 3510, "rest</w>": 3511, "resta": 3512, "restaur": 3513, "restra": 3514, "resul": 3515, "retic": 3516, "revea": 3517, "rever": 3518, "reverber": 3519, "revie": 3520, "revital": 3521, "revol": 3522, "rew</w>": 3523, "rewar": 3524, "rey": 3525, "rh": 3526, "rhn": 3527, "rhne": 3528, "rhne</w>": 3529, "rhu": 3530, "rhubar": 3531, "ri": 3532, "ri</w>": 3533, "ria</w>": 3534, "ribol": 3535, "ribs</w>": 3536, "ribu": 3537, "ric</w>": 3538, "rich": 3539, "rich</w>": 3540, "rid</w>": 3541, "ride</w>": 3542, "rie</w>": 3543, "ried</w>": 3544, "ries": 3545, "ries</w>": 3546, "riga</w>": 3547, "rim</w>": 3548, "rin": 3549, "rind</w>": 3550, "ring": 3551, "ring</w>": 3552, "rio": 3553, "rio</w>": 3554, "riot</w>": 3555, "rip": 3556, "ripe": 3557, "ripe</w>": 3558, "ripen": 3559, "ripp": 3560, "ris": 3561, "ris</w>": 3562, "rise</w>": 3563, "riser": 3564, "rish</w>": 3565, "riso": 3566, "risp</w>": 3567, "rist": 3568, "rit": 3569, "rit</w>": 3570, "rita</w>": 3571, "river": 3572, "riz</w>": 3573, "ro": 3574, "ro</w>": 3575, "roa": 3576, "road</w>": 3577, "roast": 3578, "robu": 3579, "roc": 3580, "rock": 3581, "rock</w>": 3582, "rod": 3583, "rol": 3584, "role</w>": 3585, "roll</w>": 3586, "rom": 3587, "roman": 3588, "ron": 3589, "ron</w>": 3590, "rondin": 3591, "roo": 3592, "room</w>": 3593, "root</w>": 3594, "ros": 3595, "ros</w>": 3596, "rosa": 3597, "rosa</w>": 3598, "rose": 3599, "rose</w>": 3600, "ross": 3601, "ross</w>": 3602, "rot</w>": 3603, "rou": 3604, "rough": 3605, "roun": 3606, "rouss": 3607, "row": 3608, "row</w>": 3609, "rown</w>": 3610, "roy": 3611, "rs</w>": 3612, "ru": 3613, "rub": 3614, "rubber": 3615, "ruby": 3616, "ruby</w>": 3617, "rule</w>": 3618, "rum": 3619, "rum</w>": 3620, "run": 3621, "run</w>": 3622, "runk</w>": 3623, "runs</w>": 3624, "rush</w>": 3625, "russ": 3626, "russi": 3627, "rust</w>": 3628, "rustic": 3629, "ruther": 3630, "ry": 3631, "ry</w>": 3632, "ryan</w>": 3633, "s</w>": 3634, "sa": 3635, "sa</w>": 3636, "sac": 3637, "sacri": 3638, "sacrific": 3639, "saf": 3640, "saffr": 3641, "sag": 3642, "sage": 3643, "sage</w>": 3644, "sagran": 3645, "said</w>": 3646, "sain": 3647, "saint": 3648, "sainte": 3649, "sal": 3650, "sala": 3651, "salam": 3652, "salin": 3653, "salmon": 3654, "salt</w>": 3655, "sam": 3656, "sam</w>": 3657, "same</w>": 3658, "san": 3659, "san</w>": 3660, "sancer": 3661, "sand": 3662, "sand</w>": 3663, "sandal": 3664, "sandpa": 3665, "sangi": 3666, "sangu": 3667, "sap</w>": 3668, "sapar": 3669, "sar": 3670, "sardin": 3671, "sarsapar": 3672, "sassa": 3673, "sassafr": 3674, "sat": 3675, "sati": 3676, "satis": 3677, "satisf": 3678, "satisfac": 3679, "satura": 3680, "sau": 3681, "saus": 3682, "sauter": 3683, "sauv</w>": 3684, "sauvign": 3685, "sav": 3686, "save</w>": 3687, "savor": 3688, "saw": 3689, "saw</w>": 3690, "say</w>": 3691, "says</w>": 3692, "sb</w>": 3693, "sc": 3694, "sca": 3695, "sca</w>": 3696, "scal": 3697, "scan": 3698, "scen": 3699, "sch": 3700, "sch</w>": 3701, "schi": 3702, "sci": 3703, "scin": 3704, "sco": 3705, "sco</w>": 3706, "scor": 3707, "scou": 3708, "scra": 3709, "scrat": 3710, "scre": 3711, "screa": 3712, "screw": 3713, "scru": 3714, "sculp": 3715, "se": 3716, "se</w>": 3717, "sea": 3718, "sea</w>": 3719, "seam": 3720, "seam</w>": 3721, "sear": 3722, "seas": 3723, "seba": 3724, "sec": 3725, "seco</w>": 3726, "secon": 3727, "secre": 3728, "sed</w>": 3729, "sedu": 3730, "seduc": 3731, "see": 3732, "see</w>": 3733, "seed</w>": 3734, "seem</w>": 3735, "seen</w>": 3736, "sees</w>": 3737, "sel": 3738, "sel</w>": 3739, "sele": 3740, "self</w>": 3741, "sell</w>": 3742, "sely": 3743, "sely</w>": 3744, "semi": 3745, "semid": 3746, "semill": 3747, "semis": 3748, "sen": 3749, "sen</w>": 3750, "sens": 3751, "sensa": 3752, "sensu": 3753, "separ": 3754, "sequ": 3755, "ser": 3756, "ser</w>": 3757, "servic": 3758, "ses": 3759, "ses</w>": 3760, "set</w>": 3761, "sets</w>": 3762, "sett": 3763, "seven": 3764, "sever": 3765, "sex": 3766, "sexy</w>": 3767, "sh": 3768, "sh</w>": 3769, "sha": 3770, "shad": 3771, "shadow": 3772, "shaf": 3773, "shar": 3774, "sharp": 3775, "she": 3776, "she</w>": 3777, "shed": 3778, "shed</w>": 3779, "shel": 3780, "shell": 3781, "sher": 3782, "sher</w>": 3783, "shes</w>": 3784, "shi": 3785, "shi</w>": 3786, "shiita": 3787, "shim": 3788, "shimm": 3789, "ship</w>": 3790, "shira": 3791, "shiraz": 3792, "sho": 3793, "shoc": 3794, "shoe</w>": 3795, "shoo": 3796, "shop</w>": 3797, "shor": 3798, "short": 3799, "shot</w>": 3800, "shou": 3801, "show": 3802, "show</w>": 3803, "showca": 3804, "shri": 3805, "shut</w>": 3806, "shy</w>": 3807, "si": 3808, "si</w>": 3809, "sic": 3810, "sicili": 3811, "sid": 3812, "side</w>": 3813, "sign": 3814, "sign</w>": 3815, "signific": 3816, "sil": 3817, "silk</w>": 3818, "silky": 3819, "silver": 3820, "sim": 3821, "simi": 3822, "simil": 3823, "simp": 3824, "simpl": 3825, "simul": 3826, "sin": 3827, "sin</w>": 3828, "sine": 3829, "sing": 3830, "sing</w>": 3831, "single": 3832, "sink</w>": 3833, "sion</w>": 3834, "sip</w>": 3835, "sipa": 3836, "sips</w>": 3837, "sirah": 3838, "sis</w>": 3839, "sist": 3840, "sit": 3841, "sit</w>": 3842, "site</w>": 3843, "sits</w>": 3844, "sity</w>": 3845, "sive</w>": 3846, "six": 3847, "six</w>": 3848, "siz": 3849, "size</w>": 3850, "sizz": 3851, "sk": 3852, "sket": 3853, "skin": 3854, "skin</w>": 3855, "skur": 3856, "sl": 3857, "sla": 3858, "slat": 3859, "slee": 3860, "slen": 3861, "sli": 3862, "slic": 3863, "slo": 3864, "slow": 3865, "slow</w>": 3866, "sly</w>": 3867, "sm": 3868, "sm</w>": 3869, "sma": 3870, "smac": 3871, "small": 3872, "smar": 3873, "smid": 3874, "smo": 3875, "smoky": 3876, "smoo": 3877, "smooth": 3878, "sn": 3879, "sna": 3880, "snap</w>": 3881, "snea": 3882, "sni": 3883, "snt</w>": 3884, "so": 3885, "so</w>": 3886, "soa": 3887, "soap</w>": 3888, "soda</w>": 3889, "sodal": 3890, "sof": 3891, "soft": 3892, "soft</w>": 3893, "soil</w>": 3894, "sol": 3895, "sold</w>": 3896, "soli": 3897, "solo</w>": 3898, "som": 3899, "some": 3900, "some</w>": 3901, "sommel": 3902, "son": 3903, "son</w>": 3904, "sonom": 3905, "sons</w>": 3906, "soo": 3907, "soon": 3908, "soon</w>": 3909, "sop": 3910, "sophi": 3911, "sor": 3912, "sort</w>": 3913, "sou": 3914, "soul</w>": 3915, "soup</w>": 3916, "sour": 3917, "sour</w>": 3918, "sous</w>": 3919, "south": 3920, "soy</w>": 3921, "sp": 3922, "sp</w>": 3923, "spa": 3924, "span": 3925, "spar": 3926, "spark": 3927, "spe": 3928, "spea": 3929, "spear": 3930, "spec": 3931, "speci": 3932, "special": 3933, "speck": 3934, "spectac": 3935, "sper": 3936, "spi": 3937, "spic": 3938, "spice": 3939, "spicy": 3940, "spin</w>": 3941, "spir": 3942, "spla": 3943, "splen": 3944, "spo": 3945, "spor": 3946, "spot": 3947, "spot</w>": 3948, "spr": 3949, "sprea": 3950, "spri": 3951, "sprin": 3952, "spring": 3953, "sprit": 3954, "spry</w>": 3955, "spun</w>": 3956, "squ": 3957, "squar": 3958, "squea": 3959, "squeez": 3960, "ss": 3961, "ss</w>": 3962, "ssa": 3963, "sse</w>": 3964, "ssed</w>": 3965, "sses</w>": 3966, "ssi": 3967, "ssom</w>": 3968, "ssy</w>": 3969, "st": 3970, "st</w>": 3971, "sta": 3972, "sta</w>": 3973, "stac": 3974, "stag": 3975, "stage": 3976, "stain": 3977, "stal": 3978, "stan": 3979, "stand": 3980, "standar": 3981, "star": 3982, "star</w>": 3983, "state": 3984, "stay</w>": 3985, "ste": 3986, "ste</w>": 3987, "stea": 3988, "sted</w>": 3989, "stee": 3990, "steel": 3991, "stel": 3992, "stem": 3993, "stem</w>": 3994, "step</w>": 3995, "ster": 3996, "ster</w>": 3997, "stew": 3998, "stew</w>": 3999, "sti": 4000, "stic": 4001, "stic</w>": 4002, "stiff": 4003, "still": 4004, "stimu": 4005, "stir": 4006, "stit": 4007, "stle</w>": 4008, "stly</w>": 4009, "sto": 4010, "sto</w>": 4011, "stoc": 4012, "stom": 4013, "ston": 4014, "stone": 4015, "stop": 4016, "stop</w>": 4017, "stor": 4018, "str": 4019, "stra": 4020, "strai": 4021, "straight": 4022, "stral": 4023, "stran": 4024, "straw": 4025, "stre": 4026, "strea": 4027, "stream": 4028, "streng": 4029, "stret": 4030, "stri": 4031, "stro": 4032, "strong": 4033, "stru": 4034, "struc": 4035, "strugg": 4036, "sts</w>": 4037, "stu": 4038, "stubbor": 4039, "stubborn": 4040, "stuff": 4041, "stun": 4042, "stur": 4043, "sty": 4044, "sty</w>": 4045, "styli": 4046, "stylish": 4047, "su": 4048, "sua": 4049, "sual</w>": 4050, "sub": 4051, "subdu": 4052, "substan": 4053, "subtle": 4054, "suc": 4055, "succee": 4056, "succes": 4057, "success": 4058, "succu": 4059, "succulen": 4060, "such</w>": 4061, "suff": 4062, "suffic": 4063, "sug": 4064, "sugar": 4065, "suggest": 4066, "suit</w>": 4067, "sul": 4068, "sulfu": 4069, "sultan": 4070, "sum": 4071, "sum</w>": 4072, "summer": 4073, "sump": 4074, "sun": 4075, "sun</w>": 4076, "super": 4077, "superi": 4078, "supp": 4079, "suppor": 4080, "supre": 4081, "sur": 4082, "sur</w>": 4083, "sure</w>": 4084, "surpris": 4085, "sus</w>": 4086, "susta": 4087, "svel": 4088, "sw": 4089, "swa": 4090, "swam": 4091, "swea": 4092, "swee": 4093, "sweet": 4094, "sweetand": 4095, "sweett": 4096, "swir": 4097, "sy": 4098, "sy</w>": 4099, "syl": 4100, "syn": 4101, "syrah": 4102, "syru": 4103, "t</w>": 4104, "ta": 4105, "ta</w>": 4106, "tac": 4107, "tad</w>": 4108, "tag": 4109, "tag</w>": 4110, "tage</w>": 4111, "tail": 4112, "tail</w>": 4113, "tain": 4114, "tain</w>": 4115, "take</w>": 4116, "tal": 4117, "tal</w>": 4118, "talc</w>": 4119, "tale</w>": 4120, "talk</w>": 4121, "tam": 4122, "tamar": 4123, "tame</w>": 4124, "tan": 4125, "tan</w>": 4126, "tand": 4127, "tane": 4128, "tane</w>": 4129, "tang": 4130, "tang</w>": 4131, "tanger": 4132, "tank</w>": 4133, "tann": 4134, "tannic": 4135, "tannin": 4136, "tant</w>": 4137, "tantal": 4138, "tap": 4139, "tapen": 4140, "tar": 4141, "tar</w>": 4142, "tarra": 4143, "tart": 4144, "tart</w>": 4145, "tartar": 4146, "tary</w>": 4147, "tast": 4148, "taste": 4149, "tau": 4150, "taura": 4151, "taut</w>": 4152, "taw": 4153, "tch</w>": 4154, "te": 4155, "te</w>": 4156, "tea": 4157, "tea</w>": 4158, "team</w>": 4159, "teas": 4160, "teau</w>": 4161, "tech": 4162, "techni": 4163, "technic": 4164, "ted": 4165, "ted</w>": 4166, "tee": 4167, "tel</w>": 4168, "tell": 4169, "tell</w>": 4170, "tely</w>": 4171, "temecu": 4172, "temp": 4173, "tempran": 4174, "ten": 4175, "ten</w>": 4176, "tend</w>": 4177, "tenden": 4178, "tender": 4179, "tenu": 4180, "ter": 4181, "ter</w>": 4182, "teri": 4183, "term</w>": 4184, "terrac": 4185, "terri": 4186, "territ": 4187, "terro": 4188, "terroir": 4189, "ters</w>": 4190, "terti": 4191, "tes": 4192, "tes</w>": 4193, "test": 4194, "test</w>": 4195, "testar": 4196, "testi": 4197, "tex": 4198, "text": 4199, "text</w>": 4200, "th": 4201, "th</w>": 4202, "tha": 4203, "thai</w>": 4204, "than": 4205, "than</w>": 4206, "thank": 4207, "that": 4208, "that</w>": 4209, "the": 4210, "the</w>": 4211, "thed</w>": 4212, "them": 4213, "them</w>": 4214, "then</w>": 4215, "ther": 4216, "ther</w>": 4217, "thes</w>": 4218, "they": 4219, "they</w>": 4220, "thi": 4221, "thic</w>": 4222, "thick": 4223, "thin": 4224, "thin</w>": 4225, "thir": 4226, "thirst": 4227, "this</w>": 4228, "thom": 4229, "thor": 4230, "thorou": 4231, "thou": 4232, "threa": 4233, "three": 4234, "thri": 4235, "thro": 4236, "throu": 4237, "through": 4238, "throw": 4239, "ths</w>": 4240, "thu": 4241, "thus</w>": 4242, "thy": 4243, "thy</w>": 4244, "ti": 4245, "ti</w>": 4246, "tial</w>": 4247, "tic": 4248, "tic</w>": 4249, "tie</w>": 4250, "tier</w>": 4251, "ties</w>": 4252, "tight": 4253, "tightly": 4254, "til": 4255, "til</w>": 4256, "tile</w>": 4257, "till": 4258, "till</w>": 4259, "time</w>": 4260, "tin": 4261, "tin</w>": 4262, "tina</w>": 4263, "tine</w>": 4264, "ting": 4265, "ting</w>": 4266, "tino</w>": 4267, "tint": 4268, "tint</w>": 4269, "tiny</w>": 4270, "tion": 4271, "tion</w>": 4272, "tip</w>": 4273, "tire</w>": 4274, "tis": 4275, "tis</w>": 4276, "tiv": 4277, "tive</w>": 4278, "tl": 4279, "tle": 4280, "tle</w>": 4281, "tlin": 4282, "tly</w>": 4283, "to": 4284, "to</w>": 4285, "toa": 4286, "toast": 4287, "toasted": 4288, "tobac": 4289, "tobacco": 4290, "toca": 4291, "toe</w>": 4292, "toes</w>": 4293, "tof": 4294, "toff": 4295, "tol": 4296, "tom": 4297, "toma": 4298, "tomato": 4299, "ton": 4300, "ton</w>": 4301, "tone</w>": 4302, "tong": 4303, "tongu": 4304, "tongue": 4305, "tons</w>": 4306, "too": 4307, "too</w>": 4308, "took</w>": 4309, "tooth": 4310, "top": 4311, "top</w>": 4312, "tor": 4313, "tor</w>": 4314, "toro</w>": 4315, "torron": 4316, "tors</w>": 4317, "tory</w>": 4318, "tos</w>": 4319, "tou": 4320, "tour</w>": 4321, "tow": 4322, "tow</w>": 4323, "town</w>": 4324, "tr": 4325, "tra": 4326, "trac": 4327, "trade": 4328, "traditi": 4329, "tral</w>": 4330, "tramin": 4331, "tran": 4332, "trans": 4333, "transiti": 4334, "translu": 4335, "transpar": 4336, "tre": 4337, "trea": 4338, "treac": 4339, "trebbi": 4340, "tree</w>": 4341, "tremen": 4342, "tren": 4343, "tri": 4344, "tribu": 4345, "trin": 4346, "trio</w>": 4347, "triump": 4348, "tro": 4349, "tropic": 4350, "tropical": 4351, "trou": 4352, "tru": 4353, "true</w>": 4354, "truffl": 4355, "trum</w>": 4356, "try": 4357, "try</w>": 4358, "ts": 4359, "ts</w>": 4360, "tt": 4361, "tt</w>": 4362, "tta</w>": 4363, "tte</w>": 4364, "tten</w>": 4365, "tter": 4366, "tter</w>": 4367, "tti": 4368, "tti</w>": 4369, "ttle</w>": 4370, "tto</w>": 4371, "ttome": 4372, "tty</w>": 4373, "tu": 4374, "tuber": 4375, "tug</w>": 4376, "tum": 4377, "tum</w>": 4378, "tun": 4379, "tuna</w>": 4380, "tune</w>": 4381, "tur": 4382, "tura": 4383, "ture": 4384, "ture</w>": 4385, "turn</w>": 4386, "tus": 4387, "tus</w>": 4388, "tuscan": 4389, "tw": 4390, "twi": 4391, "two": 4392, "two</w>": 4393, "ty": 4394, "ty</w>": 4395, "type</w>": 4396, "typi": 4397, "typic": 4398, "tys</w>": 4399, "tz": 4400, "u</w>": 4401, "uc": 4402, "ud</w>": 4403, "ue</w>": 4404, "ugu": 4405, "ul": 4406, "ul</w>": 4407, "ular</w>": 4408, "ull</w>": 4409, "ult": 4410, "ult</w>": 4411, "ulti": 4412, "ultr": 4413, "ultra": 4414, "ultrac": 4415, "ultrar": 4416, "ultrare": 4417, "um": 4418, "um</w>": 4419, "uma": 4420, "ump": 4421, "un": 4422, "un</w>": 4423, "una": 4424, "unab": 4425, "unabash": 4426, "unc": 4427, "unch</w>": 4428, "under": 4429, "undergir": 4430, "underl": 4431, "undern": 4432, "underpin": 4433, "undoub": 4434, "une</w>": 4435, "uneu": 4436, "unfol": 4437, "unfur": 4438, "uni": 4439, "uniqu": 4440, "unky</w>": 4441, "unlea": 4442, "unmistak": 4443, "uno": 4444, "unob": 4445, "unve": 4446, "up": 4447, "up</w>": 4448, "upand": 4449, "upon</w>": 4450, "upri": 4451, "ur": 4452, "ura</w>": 4453, "ure</w>": 4454, "ured</w>": 4455, "ures</w>": 4456, "urry</w>": 4457, "urs</w>": 4458, "urt</w>": 4459, "us</w>": 4460, "usa</w>": 4461, "use": 4462, "use</w>": 4463, "used</w>": 4464, "uses</w>": 4465, "ush": 4466, "usu": 4467, "ut": 4468, "ut</w>": 4469, "ute</w>": 4470, "uts</w>": 4471, "ux": 4472, "ux</w>": 4473, "v</w>": 4474, "va": 4475, "va</w>": 4476, "vac": 4477, "vag": 4478, "vage</w>": 4479, "vagu": 4480, "val": 4481, "val</w>": 4482, "vale</w>": 4483, "valen": 4484, "valley": 4485, "valpolic": 4486, "valu": 4487, "value": 4488, "van": 4489, "van</w>": 4490, "vanil": 4491, "vanill": 4492, "vanilla": 4493, "vanillac": 4494, "var": 4495, "vari": 4496, "varie": 4497, "variet": 4498, "vas</w>": 4499, "vasi": 4500, "vast</w>": 4501, "ve": 4502, "ve</w>": 4503, "vea": 4504, "veal</w>": 4505, "ved</w>": 4506, "vee": 4507, "veer</w>": 4508, "veg": 4509, "vege": 4510, "vegeta": 4511, "veggi": 4512, "veil</w>": 4513, "vein</w>": 4514, "vel": 4515, "vel</w>": 4516, "vele": 4517, "vels</w>": 4518, "veltlin": 4519, "velve": 4520, "velvety": 4521, "vely</w>": 4522, "ven": 4523, "ven</w>": 4524, "vene": 4525, "vens</w>": 4526, "vent</w>": 4527, "ver": 4528, "ver</w>": 4529, "verben": 4530, "verd": 4531, "verde": 4532, "verdel": 4533, "verdic": 4534, "vermen": 4535, "vernac": 4536, "vers": 4537, "vers</w>": 4538, "versa": 4539, "very</w>": 4540, "ves": 4541, "ves</w>": 4542, "vest</w>": 4543, "vet</w>": 4544, "veter": 4545, "vi": 4546, "vi</w>": 4547, "via</w>": 4548, "vias</w>": 4549, "vib": 4550, "vibe</w>": 4551, "vibran": 4552, "vic": 4553, "victo": 4554, "vid": 4555, "vid</w>": 4556, "vie": 4557, "vie</w>": 4558, "vien": 4559, "vier</w>": 4560, "vies</w>": 4561, "viet": 4562, "view</w>": 4563, "vig": 4564, "vign": 4565, "vigor": 4566, "vil": 4567, "vil</w>": 4568, "villa": 4569, "vin": 4570, "vin</w>": 4571, "vine</w>": 4572, "vineg": 4573, "viney": 4574, "vineyar": 4575, "vineyard": 4576, "ving</w>": 4577, "vino</w>": 4578, "vint": 4579, "vintag": 4580, "vio": 4581, "vio</w>": 4582, "viogn": 4583, "viognier": 4584, "viol": 4585, "violet": 4586, "vir": 4587, "virgin": 4588, "virtu": 4589, "vis": 4590, "vis</w>": 4591, "visc": 4592, "visco": 4593, "visi": 4594, "vit": 4595, "vitam": 4596, "vite</w>": 4597, "viticul": 4598, "vity</w>": 4599, "vivac": 4600, "vivid": 4601, "vo": 4602, "vo</w>": 4603, "vol": 4604, "vola": 4605, "vola</w>": 4606, "volcan": 4607, "volu": 4608, "volup": 4609, "vou": 4610, "vouv": 4611, "vy": 4612, "vy</w>": 4613, "w</w>": 4614, "wa": 4615, "waf": 4616, "waft</w>": 4617, "wai": 4618, "wait</w>": 4619, "wake</w>": 4620, "wal": 4621, "walk</w>": 4622, "wall</w>": 4623, "wan": 4624, "want</w>": 4625, "war": 4626, "ward</w>": 4627, "warm": 4628, "warm</w>": 4629, "was</w>": 4630, "wash": 4631, "wash</w>": 4632, "washing": 4633, "water": 4634, "wave</w>": 4635, "wax</w>": 4636, "waxy</w>": 4637, "way": 4638, "way</w>": 4639, "ways</w>": 4640, "we": 4641, "we</w>": 4642, "wea": 4643, "weak</w>": 4644, "weal": 4645, "wed</w>": 4646, "wee": 4647, "weed</w>": 4648, "week": 4649, "week</w>": 4650, "weet</w>": 4651, "wei": 4652, "weigh": 4653, "weight": 4654, "wein": 4655, "weinba": 4656, "wel": 4657, "well": 4658, "well</w>": 4659, "went</w>": 4660, "wer</w>": 4661, "were</w>": 4662, "west": 4663, "west</w>": 4664, "wester": 4665, "wet": 4666, "wet</w>": 4667, "weve</w>": 4668, "wh": 4669, "what</w>": 4670, "whe": 4671, "whea": 4672, "whel": 4673, "when</w>": 4674, "wher": 4675, "whi": 4676, "whis": 4677, "whist": 4678, "whit": 4679, "white": 4680, "who": 4681, "who</w>": 4682, "whol": 4683, "whole": 4684, "whos</w>": 4685, "why</w>": 4686, "wi": 4687, "wid": 4688, "wide</w>": 4689, "wife</w>": 4690, "wil": 4691, "wild": 4692, "wild</w>": 4693, "will</w>": 4694, "willa": 4695, "willi": 4696, "win": 4697, "win</w>": 4698, "wind</w>": 4699, "wine": 4700, "wine</w>": 4701, "winemak": 4702, "winer": 4703, "wines": 4704, "wing</w>": 4705, "wins</w>": 4706, "wint": 4707, "winter": 4708, "wire</w>": 4709, "wiry</w>": 4710, "wis": 4711, "wis</w>": 4712, "wise</w>": 4713, "wish</w>": 4714, "wisp</w>": 4715, "with": 4716, "with</w>": 4717, "wn</w>": 4718, "won": 4719, "wonder": 4720, "wondrou": 4721, "wont</w>": 4722, "woo": 4723, "wood": 4724, "wood</w>": 4725, "wor": 4726, "word</w>": 4727, "work": 4728, "work</w>": 4729, "worl": 4730, "world": 4731, "worn</w>": 4732, "worth": 4733, "wou": 4734, "wow</w>": 4735, "wr": 4736, "wra": 4737, "wrap</w>": 4738, "ws</w>": 4739, "wy</w>": 4740, "x</w>": 4741, "xed</w>": 4742, "xen": 4743, "xi": 4744, "xy</w>": 4745, "y</w>": 4746, "ya</w>": 4747, "yak": 4748, "yaki</w>": 4749, "yalum": 4750, "yar": 4751, "yard</w>": 4752, "yea": 4753, "year": 4754, "year</w>": 4755, "yed</w>": 4756, "yel": 4757, "yellow": 4758, "yes</w>": 4759, "yet</w>": 4760, "yiel": 4761, "ying</w>": 4762, "ynez</w>": 4763, "yo": 4764, "yog": 4765, "yor": 4766, "york</w>": 4767, "you": 4768, "you</w>": 4769, "youd</w>": 4770, "youn": 4771, "young": 4772, "yount": 4773, "your": 4774, "your</w>": 4775, "youth": 4776, "yp": 4777, "yr": 4778, "ys</w>": 4779, "yu": 4780, "z</w>": 4781, "za": 4782, "za</w>": 4783, "zar": 4784, "ze</w>": 4785, "zea": 4786, "zed</w>": 4787, "zen</w>": 4788, "zer</w>": 4789, "zero</w>": 4790, "zes</w>": 4791, "zest": 4792, "zest</w>": 4793, "zi": 4794, "zia</w>": 4795, "zin": 4796, "zin</w>": 4797, "zinfan": 4798, "zing": 4799, "zing</w>": 4800, "zins</w>": 4801, "zio</w>": 4802, "zip</w>": 4803, "zo</w>": 4804, "zon": 4805, "zone</w>": 4806, "zweigel": 4807, "zy</w>": 4808, "zz": 4809, "zz</w>": 4810, "zzar": 4811, "zze</w>": 4812, "zzo</w>": 4813, "zzy</w>": 4814}